{"version":"1.0","truncation":null,"padding":null,"added_tokens":[{"id":0,"special":true,"content":"<unk>","single_word":false,"lstrip":false,"rstrip":false,"normalized":true}],"normalizer":{"type":"NFKC"},"pre_tokenizer":{"type":"WhitespaceSplit"},"post_processor":null,"decoder":{"type":"BPEDecoder","suffix":"</w>"},"model":{"type":"BPE","dropout":null,"unk_token":null,"continuing_subword_prefix":null,"end_of_word_suffix":null,"vocab":{"<unk>":0,"!":1,"\"":2,"#":3,"$":4,"%":5,"&":6,"'":7,"(":8,")":9,"*":10,"+":11,",":12,"-":13,".":14,"/":15,"0":16,"1":17,"2":18,"3":19,"4":20,"5":21,"6":22,"7":23,"8":24,"9":25,":":26,";":27,"<":28,"=":29,">":30,"?":31,"@":32,"[":33,"\\":34,"]":35,"^":36,"_":37,"`":38,"a":39,"b":40,"c":41,"d":42,"e":43,"f":44,"g":45,"h":46,"i":47,"j":48,"k":49,"l":50,"m":51,"n":52,"o":53,"p":54,"q":55,"r":56,"s":57,"t":58,"u":59,"v":60,"w":61,"x":62,"y":63,"z":64,"{":65,"|":66,"}":67,"~":68,"in":69,"th":70,"an":71,"er":72,"to":73,"ou":74,"on":75,"ing":76,"re":77,"..":78,"at":79,"it":80,"or":81,"is":82,"the":83,"ll":84,"me":85,"st":86,"ha":87,"ee":88,"ay":89,"oo":90,"ve":91,"ar":92,"le":93,"no":94,"you":95,"and":96,"en":97,"ch":98,"my":99,"ed":100,"as":101,"so":102,"be":103,"es":104,"ad":105,"ic":106,"lo":107,"ho":108,"gh":109,"!!":110,"go":111,"am":112,"day":113,"of":114,"al":115,"for":116,"ro":117,"all":118,"...":119,"et":120,"he":121,"bu":122,"co":123,"li":124,"ac":125,"wi":126,"ly":127,"un":128,"ke":129,"wh":130,"ti":131,"i'":132,"id":133,"we":134,"'s":135,"se":136,"ght":137,"do":138,"that":139,"'t":140,"ver":141,"ri":142,"one":143,"out":144,"have":145,"up":146,"ust":147,"mo":148,"ter":149,"now":150,"ld":151,"but":152,"ne":153,"wor":154,"i'm":155,"ere":156,"just":157,"ir":158,"ood":159,"tw":160,"ab":161,"ur":162,"can":163,"tt":164,"with":165,"get":166,"are":167,"not":168,"im":169,"was":170,"qu":171,"ni":172,"ck":173,"ra":174,"la":175,"ry":176,"sh":177,"ma":178,"pe":179,"some":180,"good":181,"com":182,"work":183,"pp":184,"ally":185,"ack":186,"t;":187,"this":188,"us":189,"de":190,"ill":191,"te":192,"ag":193,"su":194,"love":195,"night":196,"end":197,"ould":198,"ant":199,"na":200,"ther":201,"mor":202,"nt":203,"than":204,"don":205,"ks":206,"like":207,"ate":208,"bo":209,"ie":210,"po":211,"time":212,"iss":213,"ye":214,"too":215,"how":216,"ss":217,"ink":218,":/":219,"quo":220,"ce":221,"thing":222,"&quo":223,"&quot;":224,"your":225,"htt":226,"://":227,"http":228,"http://":229,"pl":230,"today":231,"ish":232,"see":233,"got":234,"it's":235,"aw":236,"art":237,"n't":238,"ah":239,"twit":240,"wee":241,"fo":242,"very":243,"fee":244,"what":245,"miss":246,"ow":247,"fin":248,"back":249,"any":250,"s.":251,"going":252,"fe":253,"....":254,"ion":255,"eep":256,"rom":257,"haha":258,"ick":259,"mm":260,"ong":261,"ta":262,"lol":263,"if":264,"ca":265,"mi":266,"amp":267,"our":268,"gu":269,"want":270,"ex":271,"will":272,"from":273,"know":274,"atch":275,"ple":276,"ook":277,"@j":278,"fu":279,"new":280,"off":281,"ning":282,"oh":283,"did":284,"ice":285,"its":286,"mu":287,"il":288,"wa":289,"ting":290,"feel":291,"nd":292,"lu":293,"don't":294,"really":295,"think":296,"about":297,"ain":298,"!!!":299,"way":300,"had":301,".com":302,"ts":303,"ge":304,"row":305,"gre":306,"ers":307,"eed":308,"ph":309,"there":310,"@s":311,"fri":312,"read":313,"ent":314,"red":315,"ine":316,"watch":317,"more":318,"&amp":319,"&amp;":320,"home":321,"well":322,"pic":323,"can't":324,"??":325,"sp":326,"ough":327,"fa":328,"ig":329,"ool":330,"ite":331,"con":332,"een":333,"need":334,"still":335,"ard":336,"jo":337,"che":338,"sl":339,"they":340,".com/":341,"ww":342,"fun":343,"week":344,"tu":345,"ess":346,"ving":347,"ru":348,"happ":349,"ide":350,"@m":351,"when":352,"thanks":353,"twitter":354,"@d":355,"king":356,"sa":357,"hope":358,"come":359,"aa":360,"man":361,"oooo":362,"ound":363,"here":364,"last":365,"by":366,"has":367,"every":368,"hh":369,"pro":370,"ace":371,"ff":372,"much":373,"ist":374,"eve":375,"ind":376,"then":377,"her":378,"pre":379,"sleep":380,"llow":381,"morrow":382,"right":383,"morning":384,"wish":385,"cu":386,"been":387,"ous":388,"wn":389,"great":390,"she":391,"tomorrow":392,"sad":393,"wait":394,"br":395,"gr":396,"sto":397,"har":398,"follow":399,"again":400,"ass":401,"sun":402,"ak":403,"ny":404,"af":405,"dy":406,"friend":407,"sor":408,"it.":409,"twee":410,"'re":411,"rain":412,"would":413,"!!!!":414,"mon":415,"pu":416,"bad":417,"use":418,"ation":419,"won":420,"ive":421,"look":422,"ber":423,"itt":424,"ble":425,"xx":426,"au":427,"stu":428,"@k":429,"why":430,"ready":431,"who":432,"der":433,"happy":434,"could":435,"di":436,"other":437,"over":438,"only":439,"ok":440,"say":441,"pr":442,"per":443,"sorry":444,"ys":445,"car":446,"show":447,"gir":448,"make":449,"00":450,"ase":451,"tter":452,"though":453,"lf":454,"tonight":455,"ast":456,"gon":457,"i'll":458,"sch":459,"head":460,"ang":461,"try":462,"down":463,"xt":464,"bed":465,"should":466,"play":467,"ga":468,"yes":469,"girl":470,"bl":471,"hi":472,"um":473,"nice":474,"them":475,"zz":476,"fre":477,"om":478,"@c":479,"tr":480,"gg":481,"getting":482,"after":483,"fi":484,"does":485,"bab":486,"gonna":487,"yeah":488,"watching":489,"ps":490,"bro":491,"ment":492,"gl":493,"better":494,"ies":495,"phone":496,"start":497,"hey":498,"long":499,"s,":500,"ile":501,"ade":502,"ful":503,"may":504,"vie":505,"that's":506,"s!":507,"min":508,"hu":509,"hour":510,"app":511,"school":512,"awe":513,"peo":514,"yy":515,"people":516,"him":517,"anna":518,"ct":519,"part":520,"hate":521,"ste":522,"twitpic":523,"thank":524,"@b":525,"tal":526,"cause":527,"sc":528,"where":529,"tion":530,"age":531,"awesome":532,"du":533,"ms":534,"even":535,"didn't":536,"ity":537,"you're":538,"ans":539,"i've":540,"ear":541,"ster":542,"mar":543,"twitpic.com/":544,"tho":545,"http://twitpic.com/":546,"days":547,"weekend":548,"el":549,"ama":550,"@p":551,"ach":552,"ner":553,"ia":554,"tweet":555,"kes":556,"lly":557,"life":558,"let":559,"take":560,"sho":561,"ittle":562,"soon":563,"wr":564,"bre":565,"ty":566,"ley":567,"ugh":568,"dont":569,"best":570,"next":571,"were":572,"sup":573,"cl":574,"little":575,"ash":576,"fore":577,"ought":578,"never":579,"ft":580,"fir":581,"rr":582,"able":583,"cant":584,"ton":585,"ater":586,"inter":587,"ci":588,"&l":589,"&lt;":590,"ii":591,"wo":592,"hel":593,"av":594,"his":595,"cou":596,"most":597,"ser":598,"ooo":599,"year":600,"working":601,"cra":602,"tired":603,"ever":604,"sick":605,"list":606,"call":607,"mmer":608,"please":609,"ouse":610,"sure":611,"10":612,"suck":613,"lea":614,"http://b":615,"first":616,"everyone":617,"ort":618,"real":619,"having":620,"hur":621,"doing":622,"wanna":623,"ream":624,"find":625,"ya":626,"dr":627,"dam":628,"late":629,"eat":630,"vo":631,"tor":632,"done":633,"feeling":634,"zing":635,"joy":636,"blo":637,"bit":638,"cool":639,"je":640,"being":641,"self":642,"day.":643,"ap":644,"yay":645,"side":646,"les":647,"boo":648,"live":649,"ways":650,"tri":651,"sha":652,"fly":653,"something":654,"mus":655,"mom":656,"another":657,"est":658,"house":659,"ba":660,"dd":661,"tin":662,"fr":663,"luck":664,"help":665,"song":666,"big":667,"made":668,"book":669,"keep":670,"me.":671,"bir":672,"sy":673,"old":674,"yet":675,"already":676,"hell":677,"'ll":678,"tty":679,"dis":680,"hard":681,"til":682,"ious":683,"io":684,"ance":685,"ed.":686,"par":687,"int":688,"exc":689,"tell":690,"because":691,"light":692,"ing.":693,"?!":694,"lot":695,"cle":696,"movie":697,"always":698,"enjoy":699,"summer":700,"win":701,"guys":702,"pt":703,"&lt;3":704,"@t":705,"sin":706,"sk":707,"baby":708,"@n":709,"went":710,"ly/":711,"ris":712,"ily":713,"@l":714,"omg":715,"away":716,"ange":717,"eeee":718,"hot":719,"w.":720,"si":721,"mc":722,"finish":723,"it.ly/":724,"http://bit.ly/":725,"vis":726,"before":727,"zy":728,"damn":729,"net":730,"kid":731,"sound":732,"trying":733,"game":734,"ather":735,"run":736,"finally":737,"looking":738,"amazing":739,"@e":740,"loo":741,"fam":742,"att":743,"des":744,"now.":745,"bs":746,"coming":747,"ited":748,"hear":749,"pretty":750,"friends":751,"pen":752,"cy":753,"tur":754,"star":755,"ut":756,"pa":757,"maybe":758,"bb":759,"listen":760,"add":761,"music":762,"roo":763,"thought":764,"boy":765,"clo":766,"tv":767,"bur":768,"into":769,"cer":770,"less":771,"check":772,"gott":773,"son":774,"fuck":775,"line":776,"it!":777,"day!":778,"wow":779,"face":780,"xo":781,"early":782,"sit":783,"swee":784,"ger":785,"ward":786,"left":787,"world":788,"give":789,"act":790,"kind":791,"things":792,"cr":793,"ason":794,"ture":795,"while":796,"iz":797,"lle":798,"da":799,"gs":800,"30":801,"hours":802,"talk":803,"lost":804,"unch":805,"today.":806,"va":807,"mp":808,"many":809,"tra":810,"weather":811,"ip":812,"glad":813,"set":814,"y.":815,"ank":816,"stuff":817,"ul":818,"guess":819,"@a":820,"din":821,"land":822,"@the":823,"sat":824,"load":825,"someone":826,"two":827,"doesn't":828,"cor":829,"post":830,"far":831,"ated":832,"hair":833,"wal":834,"ise":835,"god":836,"bored":837,"break":838,"nothing":839,"cold":840,"@g":841,"ree":842,"actu":843,"spe":844,"hun":845,"ian":846,"wer":847,"cho":848,"beau":849,"12":850,"ign":851,"same":852,"might":853,"those":854,"birth":855,"dri":856,"p.":857,"ure":858,"missed":859,"happen":860,"--":861,"pho":862,"stay":863,"friday":864,"wonder":865,".....":866,"later":867,"uu":868,"saw":869,"won't":870,"ds":871,"tru":872,"plan":873,"also":874,"sing":875,"fer":876,"times":877,"exam":878,"http://twitpic.com/6":879,"waiting":880,"free":881,"gotta":882,"vide":883,"@mi":884,"bor":885,"actually":886,"party":887,"jon":888,"until":889,"upd":890,"wel":891,"men":892,"rock":893,"cha":894,"looks":895,"dad":896,"mber":897,"video":898,"@r":899,"meet":900,"www.":901,"port":902,"excited":903,"such":904,"@ch":905,"count":906,"url":907,"reme":908,"ates":909,"makes":910,"brother":911,"leave":912,"lor":913,"ich":914,"sm":915,"ress":916,"since":917,"ju":918,"said":919,"body":920,"least":921,"oney":922,"11":923,"poor":924,"mind":925,"pping":926,"beauti":927,"room":928,"found":929,"ins":930,"yester":931,"okay":932,"iphone":933,"under":934,"job":935,"bar":936,"he's":937,"heart":938,"turn":939,"must":940,"photo":941,"thats":942,"myself":943,"few":944,"soooo":945,"low":946,"nn":947,"sis":948,"mean":949,"beautiful":950,"awww":951,"hahaha":952,"food":953,"vin":954,"rest":955,"war":956,"lin":957,"med":958,"around":959,"air":960,"20":961,"ball":962,"aaaa":963,"gy":964,"beli":965,"birthday":966,"ken":967,"hehe":968,"guy":969,"tom":970,"anything":971,"gone":972,"cute":973,"you!":974,"es.":975,"till":976,"making":977,"ja":978,"wed":979,"mail":980,"put":981,"buy":982,"haven't":983,"missing":984,"pi":985,"mine":986,"ating":987,"class":988,"t.":989,"fav":990,"fast":991,"lunch":992,"fan":993,"sounds":994,"ence":995,"place":996,"ary":997,"ding":998,"dream":999,"pain":1000,"stop":1001,"top":1002,"vers":1003,"family":1004,"dan":1005,"rep":1006,"aww":1007,"key":1008,"rough":1009,"sur":1010,"super":1011,"ling":1012,"ask":1013,"everything":1014,"which":1015,"almost":1016,"you.":1017,"their":1018,"dinner":1019,"picture":1020,"ache":1021,"monday":1022,"w/":1023,"iting":1024,"mess":1025,"i'd":1026,"clean":1027,"tiny":1028,"care":1029,"...i":1030,"anyone":1031,"fully":1032,"month":1033,"ction":1034,"stup":1035,"a.":1036,"welcome":1037,";)":1038,"cof":1039,"send":1040,"believe":1041,"thinking":1042,"bi":1043,"woke":1044,"stupid":1045,"wanted":1046,"em":1047,"ici":1048,"used":1049,"listening":1050,"hor":1051,"rus":1052,"tre":1053,"too.":1054,"well,":1055,"study":1056,"19":1057,"comp":1058,"finished":1059,"fl":1060,"hand":1061,"isn't":1062,"sucks":1063,"sweet":1064,"vi":1065,"????":1066,"kill":1067,"arent":1068,"ats":1069,"cry":1070,"drink":1071,"@i":1072,"chi":1073,"coffee":1074,"yo":1075,"oot":1076,"hhhh":1077,"&g":1078,"erson":1079,"&gt;":1080,"high":1081,"bye":1082,"forward":1083,"ko":1084,"ago":1085,"tot":1086,"ze":1087,"name":1088,"sim":1089,"band":1090,"cal":1091,"hmm":1092,"lovely":1093,"yesterday":1094,"wrong":1095,"sunday":1096,"it,":1097,"dog":1098,"outside":1099,"press":1100,"ness":1101,"test":1102,"funny":1103,"hit":1104,"ark":1105,"s...":1106,"ana":1107,"work.":1108,"satur":1109,"lol.":1110,"playing":1111,"probab":1112,"hurts":1113,"ted":1114,"fall":1115,"pm":1116,"e.":1117,"through":1118,"cur":1119,"cre":1120,"these":1121,"probably":1122,"anymore":1123,"cook":1124,"d.":1125,"busy":1126,"pay":1127,"@to":1128,"remember":1129,"ath":1130,"kk":1131,"hop":1132,"amer":1133,"without":1134,"url.com/":1135,"money":1136,"enough":1137,"13":1138,"char":1139,"arch":1140,"blog":1141,"nor":1142,"bum":1143,"cour":1144,"jun":1145,"ng":1146,"plur":1147,"@jo":1148,"sooo":1149,"weeks":1150,"followers":1151,"totally":1152,"uk":1153,"ney":1154,"didnt":1155,"http://tiny":1156,"ann":1157,"she's":1158,"mother":1159,"15":1160,"open":1161,"ane":1162,"wear":1163,"came":1164,"cess":1165,"mac":1166,"serious":1167,"train":1168,"once":1169,"move":1170,"http://tinyurl.com/":1171,"@f":1172,"ls":1173,"p/":1174,"stand":1175,"box":1176,"ither":1177,"me!":1178,"reading":1179,"following":1180,"whole":1181,"itch":1182,"pped":1183,"plurk":1184,"lad":1185,"'ve":1186,"taking":1187,"says":1188,"fm":1189,"eee":1190,"hang":1191,"pack":1192,"pass":1193,"ones":1194,"@me":1195,"sed":1196,"walk":1197,"seen":1198,"grad":1199,"avid":1200,"cyrus":1201,"@v":1202,"there's":1203,"???":1204,"full":1205,"view":1206,"als":1207,"internet":1208,"nu":1209,"100":1210,"lt":1211,"mad":1212,"ina":1213,"compu":1214,"night.":1215,"wants":1216,"person":1217,"space":1218,"py":1219,"half":1220,"own":1221,"icket":1222,"too!":1223,"hello":1224,"plurk.com/":1225,"http://plurk.com/":1226,"http://plurk.com/p/":1227,"cuz":1228,"eating":1229,"gen":1230,"ten":1231,"beach":1232,"rs":1233,"computer":1234,"ka":1235,"sw":1236,"shit":1237,"awa":1238,"mer":1239,"offici":1240,"online":1241,"dec":1242,"smi":1243,"lots":1244,"blu":1245,"clu":1246,"chill":1247,"gra":1248,"black":1249,"in'":1250,"town":1251,"lex":1252,"up.":1253,"fail":1254,"both":1255,"took":1256,"@jon":1257,"@ro":1258,"gi":1259,"leaving":1260,"tun":1261,"what's":1262,"hopefully":1263,"alone":1264,"proble":1265,"woo":1266,"ital":1267,"yes,":1268,"yeah,":1269,"soo":1270,"we're":1271,"os":1272,"nite":1273,"ing,":1274,"kinda":1275,"andy":1276,"crazy":1277,"rad":1278,"sen":1279,"sent":1280,"ire":1281,"14":1282,"bring":1283,"cial":1284,"pick":1285,"atter":1286,"nie":1287,"headache":1288,"hurt":1289,"either":1290,"tweets":1291,"rent":1292,"str":1293,"arn":1294,"del":1295,"using":1296,"shopping":1297,"course":1298,"@sh":1299,"time.":1300,"cat":1301,"sou":1302,"sister":1303,"200":1304,"cong":1305,"er.":1306,"mb":1307,"me,":1308,"else":1309,"goodnight":1310,"feels":1311,"tomorrow.":1312,"sitting":1313,"ica":1314,"talking":1315,"saturday":1316,"wasn't":1317,"@li":1318,"ross":1319,"colle":1320,"ticket":1321,"haha.":1322,"lon":1323,"link":1324,"mr":1325,"nes":1326,"!!!!!":1327,"btw":1328,"dif":1329,"today,":1330,"fire":1331,"you?":1332,"cover":1333,"seems":1334,"fect":1335,"ed!":1336,"ages":1337,"news":1338,"they're":1339,"@x":1340,"ly.":1341,"dead":1342,"trip":1343,"goo":1344,"gar":1345,"heard":1346,"though.":1347,"m.":1348,"........":1349,"dou":1350,"tried":1351,"lar":1352,"lma":1353,"stuck":1354,"jonas":1355,"bla":1356,"swi":1357,"@mar":1358,"today!":1359,"ohn":1360,"bby":1361,"y!":1362,"led":1363,"word":1364,"idea":1365,"eas":1366,"ren":1367,"again.":1368,"true":1369,"congr":1370,"@al":1371,"inks":1372,"rible":1373,"defin":1374,"dra":1375,"ahhh":1376,"@h":1377,"city":1378,"ven":1379,"you,":1380,"concer":1381,"forgot":1382,"hung":1383,"sex":1384,"green":1385,"brothers":1386,"den":1387,"gan":1388,"rid":1389,"lap":1390,"watched":1391,"tum":1392,"fix":1393,"die":1394,"tour":1395,"xxx":1396,"ik":1397,"noon":1398,"oooooooo":1399,"wont":1400,"office":1401,"couldn't":1402,"favor":1403,"now,":1404,"started":1405,"ared":1406,"cell":1407,"suppo":1408,"catch":1409,"oh,":1410,"home.":1411,"dude":1412,"!!!!!!!!":1413,"facebook":1414,"email":1415,"ight":1416,"ring":1417,"mag":1418,"raining":1419,"gle":1420,"text":1421,"cru":1422,"sal":1423,"site":1424,"seeing":1425,"anyway":1426,"@dan":1427,"minut":1428,"mcfly":1429,"dro":1430,"shower":1431,"awake":1432,"cup":1433,"sty":1434,"season":1435,"@miss":1436,"ked":1437,"mid":1438,"s?":1439,"yay!":1440,"@miley":1441,"@be":1442,"mis":1443,"ved":1444,"nch":1445,"past":1446,"told":1447,"chick":1448,"lie":1449,"kids":1450,"oud":1451,"breakfast":1452,"a_":1453,"pet":1454,"rist":1455,"goes":1456,"22":1457,"ker":1458,"water":1459,"ico":1460,"loved":1461,"interest":1462,"@br":1463,"y,":1464,"engl":1465,"secon":1466,"http://www.":1467,"needs":1468,"cream":1469,"gin":1470,"roll":1471,"lax":1472,"ep":1473,"tain":1474,"tube":1475,"res":1476,"loves":1477,"update":1478,"dress":1479,"change":1480,"sunny":1481,"tonight.":1482,"reply":1483,"lay":1484,"thanks!":1485,"@mileycyrus":1486,"cfly":1487,"girls":1488,"broke":1489,"starting":1490,"scre":1491,"jeal":1492,"lmao":1493,"bout":1494,"ws":1495,"short":1496,"day,":1497,"fair":1498,"cus":1499,"xd":1500,"cast":1501,"vato":1502,"seriously":1503,"grand":1504,"years":1505,"that.":1506,"laugh":1507,"cut":1508,"iv":1509,"gets":1510,"comple":1511,"dear":1512,"'d":1513,"award":1514,"pics":1515,"spo":1516,"bought":1517,"ahh":1518,"fine":1519,"18":1520,"c.":1521,"squ":1522,"you'll":1523,"lovato":1524,"park":1525,"drive":1526,"tive":1527,"out.":1528,"quest":1529,"mum":1530,"24":1531,"aking":1532,"33":1533,"@_":1534,"@ste":1535,"anno":1536,"good.":1537,"heading":1538,"boring":1539,"a,":1540,"camp":1541,"sore":1542,"holi":1543,"tie":1544,"now!":1545,"final":1546,"minutes":1547,"50":1548,"card":1549,"leep":1550,"sign":1551,"yum":1552,"cept":1553,"ces":1554,"ky":1555,"worth":1556,"tely":1557,"spend":1558,"perfect":1559,"yyyy":1560,"pod":1561,"stead":1562,"relax":1563,"quite":1564,"point":1565,"wonderful":1566,"anne":1567,"moon":1568,"ird":1569,"burn":1570,"hungry":1571,"form":1572,"dance":1573,"ed,":1574,"wake":1575,"join":1576,"stra":1577,"chur":1578,"@z":1579,"fil":1580,"team":1581,"nap":1582,"ately":1583,"mmm":1584,"aaa":1585,"blood":1586,"@la":1587,"uck":1588,"llen":1589,"09":1590,"por":1591,"ition":1592,"annoy":1593,"bra":1594,"cli":1595,"jor":1596,"shine":1597,"mach":1598,"morning.":1599,"asleep":1600,"berry":1601,"afternoon":1602,"mark":1603,"enjoying":1604,"@re":1605,"cent":1606,"wood":1607,"cake":1608,"@dd":1609,"called":1610,"@de":1611,"gard":1612,"ham":1613,"ey":1614,"gas":1615,"ob":1616,"instead":1617,"gether":1618,"cont":1619,"june":1620,"kin":1621,"op":1622,"ped":1623,"vel":1624,"buck":1625,"luv":1626,"couple":1627,"lucky":1628,"lic":1629,"reason":1630,"moment":1631,"figu":1632,"ctor":1633,"kn":1634,"vac":1635,"que":1636,"mood":1637,"stre":1638,"youtube":1639,"shi":1640,"illy":1641,"@jen":1642,"sleep.":1643,"appo":1644,"gradu":1645,"@ddlovato":1646,"pat":1647,"chee":1648,"bell":1649,"web":1650,"near":1651,"write":1652,"ject":1653,"running":1654,"favorite":1655,"21":1656,"mit":1657,"mic":1658,"beat":1659,"definite":1660,"church":1661,"rown":1662,"sigh":1663,"hoping":1664,"concert":1665,"means":1666,"up!":1667,"comes":1668,"@le":1669,"ler":1670,"sid":1671,"wt":1672,"together":1673,"ars":1674,"cele":1675,"homework":1676,"3.":1677,"ib":1678,"pool":1679,"es,":1680,"@tomm":1681,"jealous":1682,"jack":1683,"we'll":1684,"board":1685,"fun!":1686,"pray":1687,"fucking":1688,"no,":1689,"well.":1690,"xoxo":1691,"meeting":1692,"@tommcfly":1693,"h.":1694,"pan":1695,"mes":1696,"fortun":1697,"......":1698,"problem":1699,"@ke":1700,"pri":1701,"met":1702,"lil":1703,"urs":1704,"boys":1705,"ban":1706,"prom":1707,"lli":1708,"ics":1709,"story":1710,"itty":1711,"bee":1712,"cri":1713,"van":1714,"revis":1715,"crap":1716,"second":1717,"17":1718,"via":1719,"tting":1720,"works":1721,"http://twitpic.com/7":1722,"definitely":1723,"flo":1724,"slow":1725,"arah":1726,"up,":1727,"prin":1728,"rrrr":1729,"lady":1730,"han":1731,"awesome!":1732,"ai":1733,"l.":1734,"num":1735,"order":1736,"account":1737,"mov":1738,"tech":1739,"broken":1740,"iiii":1741,"thro":1742,"chang":1743,"sub":1744,"__":1745,"ier":1746,"igh":1747,"ible":1748,"mal":1749,"ing!":1750,"ves":1751,"chel":1752,"store":1753,"ations":1754,"@an":1755,"ben":1756,"bri":1757,"flu":1758,"h,":1759,"download":1760,"@se":1761,"kick":1762,"inst":1763,"worst":1764,"shir":1765,"conf":1766,"differ":1767,":30":1768,"@w":1769,"choco":1770,"cd":1771,"tou":1772,"loving":1773,"fb":1774,"tee":1775,"chat":1776,"white":1777,"25":1778,"60":1779,"fac":1780,"learn":1781,"goin":1782,"seem":1783,"sad.":1784,"college":1785,"knew":1786,"parent":1787,"iso":1788,"mil":1789,"babe":1790,"all.":1791,"math":1792,"poss":1793,"let's":1794,"cc":1795,"cked":1796,"movies":1797,"ont":1798,"adam":1799,"album":1800,"und":1801,"child":1802,"@st":1803,"fing":1804,"hoo":1805,"jam":1806,"aylor":1807,"ical":1808,"pur":1809,"orge":1810,"is.":1811,"uni":1812,"plus":1813,"apple":1814,"fish":1815,"sco":1816,"enter":1817,"here.":1818,"radio":1819,"in.":1820,"myspace":1821,"agree":1822,"yea":1823,"realiz":1824,"official":1825,"laptop":1826,"ev":1827,"foot":1828,"mtv":1829,"wit":1830,"ings":1831,"len":1832,"ryan":1833,"@mr":1834,"16":1835,"bag":1836,"ming":1837,"miley":1838,"exams":1839,"blue":1840,"@ma":1841,"mou":1842,"it?":1843,"search":1844,"tex":1845,"sleeping":1846,"close":1847,"gee":1848,"leg":1849,"usu":1850,"@am":1851,"eyes":1852,"fic":1853,"flight":1854,"lee":1855,"cher":1856,"moving":1857,"vice":1858,"solu":1859,"hold":1860,"comment":1861,"shop":1862,"page":1863,"ara":1864,"cos":1865,"unk":1866,"unfortun":1867,"one.":1868,"spent":1869,"@chris":1870,"horrible":1871,"london":1872,"english":1873,"23":1874,"twi":1875,"reci":1876,"ppl":1877,"mel":1878,"lazy":1879,"@david":1880,"vs":1881,"on.":1882,"fell":1883,"xxxx":1884,"bed.":1885,"ail":1886,"ran":1887,"bud":1888,"evening":1889,"fresh":1890,"fm/":1891,"chocolate":1892,"hee":1893,"hill":1894,"rand":1895,"scar":1896,"weird":1897,"pop":1898,"ions":1899,"sky":1900,"supposed":1901,"fro":1902,"bet":1903,"ican":1904,"died":1905,"freak":1906,"writing":1907,"turned":1908,"ki":1909,"nat":1910,"tory":1911,"nope":1912,"log":1913,"smile":1914,"touch":1915,"dur":1916,"jay":1917,"ship":1918,"power":1919,"gest":1920,"lol!":1921,"pleas":1922,"bless":1923,"prof":1924,"forever":1925,"special":1926,"understand":1927,"1st":1928,"ili":1929,"thx":1930,"thurs":1931,"hay":1932,"es!":1933,"forget":1934,"ustr":1935,"work,":1936,"depress":1937,"mmmm":1938,"driving":1939,"happened":1940,"@ra":1941,"kno":1942,"bow":1943,"ooooo":1944,"produ":1945,"earli":1946,"@jonas":1947,"case":1948,"lit":1949,"ught":1950,"...and":1951,"upload":1952,"tea":1953,"windo":1954,"ug":1955,"road":1956,"lip.":1957,"haha,":1958,"wishing":1959,"appoint":1960,"throat":1961,"@tr":1962,"date":1963,"ised":1964,"...but":1965,"door":1966,"morning!":1967,"stor":1968,"garden":1969,"#follow":1970,"ese":1971,"ado":1972,"webs":1973,"tues":1974,"saying":1975,"answer":1976,"visit":1977,"google":1978,"dv":1979,"ond":1980,"sometimes":1981,"cially":1982,"nick":1983,"ray":1984,"ride":1985,"recor":1986,"whats":1987,"camer":1988,"night!":1989,"episo":1990,"@o":1991,"dm":1992,"wash":1993,"qui":1994,"good!":1995,"tickets":1996,"celebr":1997,"@co":1998,"eu":1999,"eye":2000,"ipod":2001,"young":2002,"huge":2003,"ult":2004,"wedding":2005,"@ti":2006,"wall":2007,"za":2008,"remind":2009,"wouldn't":2010,"http://blip.":2011,"songs":2012,"graph":2013,"http://blip.fm/":2014,"@so":2015,"john":2016,"stick":2017,"quick":2018,"soon.":2019,"gym":2020,"drinking":2021,"http://blip.fm/~":2022,"@car":2023,"fit":2024,"pie":2025,"sam":2026,"rew":2027,"now...":2028,"sunshine":2029,"apparent":2030,"bday":2031,"dun":2032,"ience":2033,"vic":2034,"val":2035,"ries":2036,"father":2037,"40":2038,"ele":2039,"fat":2040,"jen":2041,"round":2042,"sle":2043,"today...":2044,"@ja":2045,"there.":2046,"studying":2047,"h!":2048,"piss":2049,"ering":2050,"lets":2051,"time!":2052,"expe":2053,"track":2054,"due":2055,"mommy":2056,"updates":2057,"david":2058,"vid":2059,"books":2060,"80":2061,"ue":2062,"ssss":2063,"current":2064,"77":2065,"hil":2066,"san":2067,"day...":2068,"rob":2069,"absolu":2070,"teach":2071,"project":2072,"ced":2073,"hy":2074,"espe":2075,"ford":2076,"wife":2077,"fun.":2078,"@da":2079,"tweeting":2080,"vote":2081,"/2":2082,"lan":2083,"inv":2084,"meant":2085,"arm":2086,"ami":2087,"doctor":2088,"worse":2089,"night,":2090,"bitch":2091,"boyfriend":2092,":o":2093,"a!":2094,"cing":2095,"ute":2096,"three":2097,"ons":2098,"chic":2099,"chance":2100,"chris":2101,"gover":2102,"exact":2103,"surpr":2104,"sims":2105,"**":2106,"gun":2107,"mas":2108,"wat":2109,"stress":2110,"sell":2111,"out!":2112,"worry":2113,"cannot":2114,"conne":2115,"ok,":2116,"gave":2117,"iled":2118,"tired.":2119,"small":2120,"holiday":2121,"street":2122,"gd":2123,"ot":2124,"poo":2125,"tan":2126,"rel":2127,"me?":2128,"ly,":2129,"lain":2130,"ended":2131,"again!":2132,"hug":2133,"paper":2134,"bbq":2135,"crash":2136,"warm":2137,"chicken":2138,"@su":2139,"cous":2140,"k.":2141,"sn":2142,"upset":2143,"peace":2144,"ants":2145,"tomorrow!":2146,"french":2147,"wtf":2148,"unfortunately":2149,"45":2150,"dig":2151,"fy":2152,"thinks":2153,"er,":2154,"rather":2155,"hhh":2156,"dia":2157,"@iam":2158,"awards":2159,"vacation":2160,"mill":2161,"arri":2162,"deal":2163,"tweeter":2164,"slept":2165,"especially":2166,"cas":2167,"pink":2168,"..i":2169,"hael":2170,"ali":2171,"aren't":2172,"ground":2173,"wondering":2174,").":2175,"wah":2176,"wine":2177,"ano":2178,"you've":2179,"hosp":2180,"that!":2181,"mix":2182,"@sha":2183,"week.":2184,"shall":2185,"@ca":2186,"bon":2187,"lou":2188,"vir":2189,"yu":2190,"ield":2191,"yep":2192,"fox":2193,"club":2194,"ale":2195,"ned":2196,"vill":2197,"inside":2198,"acc":2199,"ident":2200,"fever":2201,"exha":2202,"know,":2203,"right?":2204,"glass":2205,"@steph":2206,"figure":2207,"different":2208,"2.":2209,"88":2210,"90":2211,"fant":2212,"ric":2213,"lip":2214,"lies":2215,"ppy":2216,"hahah":2217,"except":2218,"know.":2219,"@dj":2220,"save":2221,"doesnt":2222,"months":2223,"congrats":2224,"@my":2225,"@ni":2226,"@don":2227,"bt":2228,"bru":2229,"fla":2230,"hind":2231,"ix":2232,"heal":2233,"bus":2234,"share":2235,"cleaning":2236,"interesting":2237,"iam":2238,"lent":2239,"cakes":2240,"fight":2241,"addic":2242,"crack":2243,"parents":2244,"i.":2245,"jer":2246,"lone":2247,"ouch":2248,"issu":2249,"beer":2250,"ried":2251,"ruin":2252,"rainy":2253,"@kat":2254,"hey,":2255,"decid":2256,"cheese":2257,"@jonasbrothers":2258,"@ar":2259,"bay":2260,"ping":2261,"ork":2262,"whate":2263,"tem":2264,"ift":2265,"@je":2266,"event":2267,"zzzz":2268,"message":2269,"#followfriday":2270,"bas":2271,"nic":2272,"pup":2273,"ison":2274,"go.":2275,"doll":2276,"def":2277,"deck":2278,"support":2279,"during":2280,"website":2281,"apparently":2282,"@mo":2283,"gal":2284,"ith":2285,"jus":2286,"kat":2287,"mate":2288,"itar":2289,"west":2290,"tonight!":2291,"voice":2292,"exhaust":2293,"cred":2294,"ol":2295,"bel":2296,"host":2297,"alright":2298,"words":2299,"hugs":2300,"appreci":2301,"officially":2302,"mat":2303,"sme":2304,"me...":2305,"shin":2306,"tel":2307,"@jess":2308,"brit":2309,"screen":2310,"hospital":2311,"@lo":2312,"kers":2313,"le.":2314,"allow":2315,"lol,":2316,"design":2317,"pizz":2318,"number":2319,"bill":2320,"dist":2321,"dark":2322,"ef":2323,"rele":2324,"lla":2325,"gettin":2326,"@ju":2327,"looked":2328,"26":2329,"@er":2330,"ild":2331,"jum":2332,"tha":2333,"bug":2334,"rip":2335,"tweep":2336,"spir":2337,"scared":2338,"soon!":2339,"dreams":2340,"bike":2341,"congrat":2342,"tummy":2343,"question":2344,"yummy":2345,"@he":2346,"bc":2347,"bal":2348,"bear":2349,"gold":2350,"do.":2351,"longer":2352,"weekend.":2353,"b-":2354,"brain":2355,"holly":2356,"fest":2357,"haha!":2358,"aint":2359,"them.":2360,"bath":2361,"@ash":2362,"gig":2363,"anda":2364,"liked":2365,"yourself":2366,"needed":2367,"cted":2368,"keeps":2369,"angel":2370,"cam":2371,"yn":2372,"isa":2373,"ari":2374,"argh":2375,"tire":2376,"idk":2377,"airport":2378,"easy":2379,"dau":2380,"dang":2381,"each":2382,"mass":2383,"ror":2384,"ative":2385,"it...":2386,"gosh":2387,"guitar":2388,"safe":2389,"000":2390,"block":2391,"earlier":2392,"@y":2393,"tb":2394,"wk":2395,"ero":2396,"behind":2397,"work!":2398,"exp":2399,"@sam":2400,"stomach":2401,"bert":2402,"hanging":2403,"film":2404,"27":2405,"dum":2406,"nin":2407,"sus":2408,"wing":2409,"memor":2410,"living":2411,"berg":2412,"zzy":2413,"version":2414,"gay":2415,"gri":2416,"kiss":2417,"sand":2418,"ud":2419,"ani":2420,"along":2421,"dio":2422,"company":2423,"install":2424,"shirt":2425,"exactly":2426,"@lu":2427,"hat":2428,"rd":2429,"mend":2430,"too,":2431,"@alex":2432,"packing":2433,"whatever":2434,"lm":2435,"there!":2436,"yet.":2437,"@just":2438,"cross":2439,"fill":2440,"mall":2441,"busin":2442,"pull":2443,"itten":2444,"pract":2445,"minute":2446,"profile":2447,"decided":2448,"knight":2449,"pal":2450,"resp":2451,"grou":2452,"ston":2453,"deser":2454,"uren":2455,"mention":2456,"2009":2457,"random":2458,"87":2459,"ctive":2460,"fans":2461,"thy":2462,"ouble":2463,"havent":2464,"imag":2465,"law":2466,"goodbye":2467,"twitter.":2468,"everybody":2469,"present":2470,"sorry.":2471,"astic":2472,"photos":2473,"realized":2474,"emp":2475,"gie":2476,"matter":2477,"shar":2478,"ino":2479,"sey":2480,"here!":2481,"wishes":2482,"!!!!!!":2483,"dire":2484,"wow,":2485,"mother's":2486,"graduation":2487,"daught":2488,"((":2489,"1.":2490,"athan":2491,"hus":2492,"hrs":2493,"vy":2494,"wis":2495,"stal":2496,"vent":2497,"days.":2498,"back.":2499,"cheer":2500,"great!":2501,"appe":2502,"bird":2503,"games":2504,"giving":2505,"non":2506,"ron":2507,"wind":2508,"hav":2509,"edu":2510,"main":2511,"plans":2512,"exper":2513,"front":2514,"?!?!":2515,"pictures":2516,"absolutely":2517,"(:":2518,"2nd":2519,"dent":2520,"fact":2521,"uh":2522,"queen":2523,"&quot;.":2524,"ah,":2525,"played":2526,"starts":2527,"interview":2528,"uuuu":2529,"hmmm":2530,"straight":2531,"twilight":2532,"@bo":2533,"grow":2534,"table":2535,"ita":2536,"worked":2537,"cap":2538,"ffic":2539,"proud":2540,"disappoint":2541,"exciting":2542,"july":2543,"gorge":2544,"jb":2545,"resu":2546,"vegas":2547,"chin":2548,"ady":2549,"sum":2550,"time,":2551,"publ":2552,"though,":2553,"http://twitpic.com/5":2554,"sucks.":2555,"pens":2556,"clothe":2557,"apart":2558,"hates":2559,"sta":2560,"eng":2561,"sold":2562,"mob":2563,"taken":2564,"thanks,":2565,"sleepy":2566,"yyy":2567,"frank":2568,"country":2569,"wednes":2570,"yr":2571,"no!":2572,"ties":2573,"dest":2574,"pot":2575,"here,":2576,"school.":2577,"shame":2578,"possible":2579,"business":2580,"alot":2581,"dat":2582,"det":2583,"gt":2584,"hr":2585,"jess":2586,"kim":2587,"pc":2588,"it'll":2589,"ada":2590,"note":2591,"ima":2592,"http://my":2593,"aul":2594,"mins":2595,"annah":2596,"@pet":2597,"base":2598,"ging":2599,"so,":2600,"am.":2601,"know!":2602,"@john":2603,"@sarah":2604,"shows":2605,"better.":2606,"woman":2607,"plane":2608,"wearing":2609,"#fb":2610,"brown":2611,"kate":2612,"mart":2613,"taylor":2614,"isnt":2615,"begin":2616,"lose":2617,"morning,":2618,"traffic":2619,"bummed":2620,",,":2621,"g.":2622,"nation":2623,"tis":2624,"thom":2625,"recom":2626,"nose":2627,"icks":2628,"all!":2629,"tween":2630,"major":2631,"good,":2632,"awful":2633,"ils":2634,"much.":2635,"smell":2636,":-":2637,"on!":2638,"ord":2639,"ene":2640,"bun":2641,"tiv":2642,"knows":2643,"joe":2644,"service":2645,"annoying":2646,"currently":2647,"cts":2648,"dar":2649,"oun":2650,"ous.":2651,"rose":2652,"shoot":2653,"theres":2654,"felt":2655,"sadly":2656,"ugh.":2657,"eeeeeeee":2658,"trail":2659,"speak":2660,"@and":2661,"u.":2662,"atl":2663,"stat":2664,"between":2665,"al.":2666,"out,":2667,"dev":2668,"ending":2669,"today?":2670,"....i":2671,"thanks.":2672,"though!":2673,"life.":2674,"walking":2675,"sexy":2676,"market":2677,"episode":2678,"fantastic":2679,"pizza":2680,"dj":2681,"ded":2682,"field":2683,"gust":2684,"kay":2685,"o.":2686,"oc":2687,"thin":2688,"logy":2689,"ah!":2690,"feed":2691,"burnt":2692,"asked":2693,"magic":2694,"mouth":2695,"storm":2696,"camera":2697,"lonely":2698,"recommend":2699,"99":2700,"hon":2701,"phe":2702,"iced":2703,"fol":2704,"extra":2705,"waking":2706,"oooooo":2707,"proper":2708,"brand":2709,"relaxing":2710,"revision":2711,"coo":2712,"none":2713,"throw":2714,"ister":2715,"nobody":2716,"color":2717,"work...":2718,"feet":2719,"ohh":2720,"chelle":2721,"much!":2722,"trouble":2723,"shot":2724,"archie":2725,"dle":2726,"jes":2727,"aller":2728,"suc":2729,".......":2730,"freaking":2731,"staying":2732,"single":2733,"sooooo":2734,"hangover":2735,"2day":2736,":'":2737,"@po":2738,"although":2739,"coz":2740,"consid":2741,"sick.":2742,"))":2743,"@im":2744,"az":2745,"info":2746,"build":2747,"ppin":2748,"ext":2749,"wwww":2750,"man,":2751,"dies":2752,"mobile":2753,"fed":2754,"vious":2755,"llo":2756,"state":2757,"wil":2758,"unt":2759,"shout":2760,"sometime":2761,"psy":2762,"hubby":2763,"tweet.":2764,"drunk":2765,"vol":2766,"fran":2767,"enjoyed":2768,"south":2769,"thursday":2770,"!?":2771,"29":2772,"bak":2773,"dru":2774,"ns":2775,"hah":2776,"roy":2777,"heat":2778,"bul":2779,"idge":2780,"that,":2781,"again,":2782,"headed":2783,"ies.":2784,"attack":2785,"completely":2786,"bloody":2787,"husband":2788,"gorgeous":2789,"85":2790,"apo":2791,"b.":2792,"channe":2793,"bull":2794,"plac":2795,"nyc":2796,"france":2797,"eh":2798,"hone":2799,"hum":2800,"i_":2801,"ial":2802,"tat":2803,"wise":2804,"asha":2805,"death":2806,"sug":2807,"posit":2808,"future":2809,"hero":2810,"grade":2811,"div":2812,"rrr":2813,"cool.":2814,"killing":2815,"dvd":2816,"euro":2817,"66":2818,"bie":2819,"cough":2820,"gro":2821,"honey":2822,"mun":2823,"n.":2824,"smo":2825,"re.":2826,"itun":2827,"no.":2828,"chan":2829,"ically":2830,"copy":2831,"rie":2832,"butter":2833,"finals":2834,"taste":2835,"talent":2836,"home,":2837,"bad.":2838,"sorry,":2839,"awesome.":2840,"type":2841,"cool!":2842,"attle":2843,"gotten":2844,"3.0":2845,"quiet":2846,"35":2847,"44":2848,"cting":2849,"fur":2850,"hm":2851,"hotel":2852,"action":2853,"dogs":2854,"shes":2855,"ahhhhh":2856,"tomorrow,":2857,"sort":2858,"tonight,":2859,"weekend!":2860,"tumbl":2861,"alex":2862,"epic":2863,"ered":2864,"often":2865,"secre":2866,"lol...":2867,"caught":2868,"ers!":2869,"man.":2870,"gging":2871,"house.":2872,"clear":2873,"@nick":2874,"cali":2875,"passed":2876,".im":2877,"89":2878,"bio":2879,"lis":2880,"ers.":2881,"hea":2882,"col":2883,"import":2884,"max":2885,"takes":2886,"gue":2887,"@mark":2888,"http://twitpic.com/4":2889,"gener":2890,"accident":2891,":|":2892,"aks":2893,"ahead":2894,"tes":2895,"island":2896,"llll":2897,"bummer":2898,"neck":2899,"lake":2900,"lakers":2901,"shut":2902,"demi":2903,"bot":2904,"@jay":2905,"stopped":2906,"history":2907,"swift":2908,"@ad":2909,"@do":2910,"@its":2911,"blast":2912,"ftw":2913,"jk":2914,"york":2915,"tori":2916,"reg":2917,"lear":2918,"ie_":2919,"issa":2920,"off.":2921,"shoes":2922,"flat":2923,"crying":2924,"bucks":2925,"ville":2926,"83":2927,"::":2928,"@ha":2929,"bf":2930,"bright":2931,"jour":2932,"mex":2933,"lena":2934,"icious":2935,"neigh":2936,"bother":2937,"sale":2938,"daddy":2939,"awwww":2940,"american":2941,"drop":2942,"tuesday":2943,"b-day":2944,"@ne":2945,"@ph":2946,"batter":2947,"dc":2948,"pin":2949,"teen":2950,"yah":2951,"on,":2952,"ony":2953,"rece":2954,"station":2955,"ha!":2956,"rich":2957,"uper":2958,"arely":2959,"lame":2960,"us.":2961,"hahahaha":2962,"twitter!":2963,"click":2964,"skin":2965,"videos":2966,"mothers":2967,"double":2968,"doubt":2969,"@danny":2970,"spending":2971,"nearly":2972,"usually":2973,"buddy":2974,"scary":2975,"@there":2976,"emo":2977,"i,":2978,"ku":2979,"mir":2980,"mama":2981,"inclu":2982,"re-":2983,"org":2984,"ener":2985,"lyn":2986,"terrible":2987,"abo":2988,"indeed":2989,"huh":2990,"him.":2991,"tweetdeck":2992,"calling":2993,"certain":2994,"icole":2995,"75":2996,"@no":2997,"hood":2998,"peep":2999,"tm":3000,"ory":3001,"one!":3002,"tted":3003,"ession":3004,"trans":3005,"mini":3006,"avail":3007,"disney":3008,"inten":3009,"amazing!":3010,"@jonathan":3011,"@davidarchie":3012,"suggest":3013,"tumblr":3014,"@na":3015,"pee":3016,"ses":3017,"mee":3018,"lead":3019,"qual":3020,"raid":3021,"this.":3022,"feat":3023,"dying":3024,"push":3025,"okay,":3026,"swimm":3027,"record":3028,"clothes":3029,"28":3030,"@official":3031,"b4":3032,"bank":3033,"four":3034,"lam":3035,"ram":3036,"vip":3037,"in,":3038,"thru":3039,"howe":3040,"aly":3041,"tim":3042,"cancell":3043,"bott":3044,"mul":3045,"ok.":3046,"tran":3047,"nerv":3048,"pix":3049,"square":3050,"teeth":3051,"pleasure":3052,"important":3053,"@all":3054,"ator":3055,"east":3056,"kar":3057,"lat":3058,"pap":3059,"anim":3060,"er!":3061,"ites":3062,"ities":3063,"ala":3064,"sel":3065,"doin":3066,"shu":3067,"deli":3068,"artic":3069,"watchin":3070,"couldnt":3071,"posted":3072,"trek":3073,"trend":3074,"group":3075,":'(":3076,"however":3077,"gn":3078,"mur":3079,"ply":3080,"tle":3081,"onto":3082,"ador":3083,"up?":3084,"nights":3085,"back!":3086,"yes!":3087,"tons":3088,"jones":3089,"aaaaaaaa":3090,"sense":3091,"princess":3092,"success":3093,"dry":3094,"jap":3095,"r.":3096,"tch":3097,"wro":3098,"orig":3099,"alia":3100,"...i'm":3101,"do!":3102,"dom":3103,"rah":3104,"somewhere":3105,"man!":3106,"great.":3107,"over.":3108,"bed,":3109,"suppose":3110,"available":3111,"86":3112,"@ge":3113,"austr":3114,"race":3115,"wha":3116,"y'":3117,"arious":3118,"loc.":3119,"cks":3120,"boss":3121,"manag":3122,"hey!":3123,"@bri":3124,"msn":3125,"germany":3126,"anymore.":3127,"normal":3128,"knee":3129,"http://myloc.":3130,"http://myloc.me":3131,"74":3132,":s":3133,"bour":3134,"tag":3135,"sted":3136,"legs":3137,"lim":3138,"now?":3139,"way.":3140,"@sim":3141,"gram":3142,"putting":3143,"planning":3144,"moved":3145,"changed":3146,"honest":3147,"itunes":3148,":p":3149,"@ed":3150,"bin":3151,"d:":3152,"rick":3153,"u?":3154,"yall":3155,"to.":3156,"rey":3157,"holy":3158,"coast":3159,"ung":3160,"whoo":3161,"worried":3162,"iel":3163,"pol":3164,"what?":3165,"@kim":3166,"down.":3167,"wow!":3168,"choice":3169,"sending":3170,"maths":3171,"window":3172,"cousin":3173,"69":3174,"@oh":3175,"@tom":3176,"egg":3177,"hes":3178,"match":3179,"wet":3180,"x.":3181,"code":3182,"one,":3183,"twice":3184,"tte":3185,"wasnt":3186,"august":3187,"who's":3188,"pair":3189,"happens":3190,"james":3191,"favour":3192,"ago.":3193,"http://blip.fm/~7":3194,"nervous":3195,"*sigh":3196,"bing":3197,"lv":3198,"mand":3199,"it!!":3200,"mike":3201,"ain't":3202,"failed":3203,"price":3204,"nice.":3205,"earth":3206,"wow.":3207,"blackberry":3208,"strong":3209,"middle":3210,"braz":3211,"frog":3212,"gd/":3213,"disappointed":3214,"wrote":3215,"ient":3216,"u!":3217,"inal":3218,"is,":3219,"likes":3220,"laund":3221,"against":3222,"ments":3223,"omg!":3224,"spell":3225,"problems":3226,"mr.":3227,"laying":3228,"pissed":3229,"puppy":3230,"!)":3231,"kitty":3232,"ing...":3233,"asking":3234,"beth":3235,"cott":3236,"lied":3237,"degre":3238,"antic":3239,"sss":3240,"hasn't":3241,"prob":3242,"followed":3243,"ation.":3244,"guys!":3245,"six":3246,"08":3247,"e3":3248,"five":3249,"ior":3250,"nal":3251,"sir":3252,"t!":3253,"orts":3254,"llie":3255,"icul":3256,"lov":3257,"cost":3258,"outta":3259,"how's":3260,"thing.":3261,"phones":3262,"mont":3263,"player":3264,"scri":3265,"clou":3266,"ashion":3267,"wolf":3268,"@nat":3269,"desk":3270,"closed":3271,"dave":3272,"soul":3273,"fixed":3274,"ibly":3275,"thomas":3276,"learning":3277,"@thereal":3278,"japan":3279,"laundry":3280,"@ab":3281,"bac":3282,"brow":3283,"ffin":3284,"ged":3285,"ito":3286,"slight":3287,"xbox":3288,"itting":3289,"wild":3290,"kept":3291,"http://is.":3292,"william":3293,"@ms":3294,"@mic":3295,"sleep,":3296,"diet":3297,"schedu":3298,"yes.":3299,"checking":3300,"corn":3301,"also,":3302,"dropped":3303,"extreme":3304,"@jonathanr":3305,"http://is.gd/":3306,"(and":3307,"3rd":3308,"ax":3309,"ek":3310,"nam":3311,"zo":3312,"stic":3313,"velo":3314,"bunch":3315,"somebody":3316,"pper":3317,"nah":3318,"miles":3319,"spam":3320,"friends.":3321,"show.":3322,"gged":3323,"yeah.":3324,"surger":3325,"btw,":3326,"promise":3327,"fingers":3328,"appreciate":3329,"practice":3330,"-)":3331,"70":3332,"cash":3333,"dir":3334,"t-":3335,"entire":3336,"chuck":3337,"that?":3338,"tear":3339,"boat":3340,"&quot;the":3341,"background":3342,"@jim":3343,"@jason":3344,"muse":3345,"everywhere":3346,"her.":3347,"hours.":3348,"where's":3349,"drinks":3350,"@lady":3351,"kidding":3352,"fml":3353,"strange":3354,"windows":3355,"dunno":3356,"expect":3357,"channel":3358,"@jonathanrknight":3359,"bff":3360,"bble":3361,"kris":3362,"loud":3363,"nc":3364,"noooo":3365,"sni":3366,"sig":3367,"tit":3368,"yup":3369,"ery":3370,"reach":3371,"orange":3372,"oom":3373,"ens":3374,"social":3375,"coll":3376,"kelly":3377,"cance":3378,"temp":3379,"thanx":3380,"yours":3381,"mily":3382,"@sp":3383,"fave":3384,"contin":3385,"cudd":3386,"stone":3387,"aud":3388,"@lis":3389,"champ":3390,"www.tweeter":3391,"turns":3392,"killed":3393,"http://plurk.com/p/x":3394,"respon":3395,"public":3396,"secret":3397,"55":3398,"dnt":3399,"ien":3400,"p!":3401,"tar":3402,"thunder":3403,"reli":3404,"ising":3405,"you...":3406,"soft":3407,"loss":3408,"libr":3409,"impress":3410,"fault":3411,"studio":3412,"@cra":3413,"@char":3414,"ggy":3415,"steph":3416,"science":3417,"ugh,":3418,"iii":3419,"ever.":3420,"frustr":3421,"thoughts":3422,"style":3423,"entertain":3424,"release":3425,"congratul":3426,"*sigh*":3427,",000":3428,"@as":3429,"@love":3430,"barely":3431,"cla":3432,"jim":3433,"lab":3434,"pants":3435,"zed":3436,"total":3437,"media":3438,"eel":3439,"christ":3440,"bey":3441,"bean":3442,"ters":3443,"shoo":3444,"plz":3445,"expens":3446,"@jord":3447,"week!":3448,"ideas":3449,"promo":3450,"them!":3451,"ment.":3452,"helping":3453,"updated":3454,"danny":3455,"hands":3456,"catching":3457,"crush":3458,"milk":3459,"@dave":3460,".im/":3461,"ae":3462,"bgt":3463,"dge":3464,"eff":3465,"las":3466,"mare":3467,"rea":3468,"review":3469,"itu":3470,"you!!":3471,"som":3472,"go!":3473,"wich":3474,"verse":3475,"pls":3476,"spring":3477,"@mat":3478,"afraid":3479,"showing":3480,"gger":3481,"gggg":3482,"everyone!":3483,"dddd":3484,"daily":3485,"falling":3486,"north":3487,"annoyed":3488,"confused":3489,"children":3490,"ruined":3491,"daughter":3492,"wednesday":3493,"/c":3494,"78":3495,"79":3496,"darn":3497,"fab":3498,"mt":3499,"matt":3500,"rac":3501,"silly":3502,"yard":3503,"th.":3504,"thor":3505,"itz":3506,"stru":3507,"level":3508,"amo":3509,"allen":3510,"heav":3511,"dot":3512,"tttt":3513,"user":3514,"dele":3515,"awn":3516,"&amp;&amp;":3517,"@mon":3518,"ffy":3519,"again...":3520,"shouldn't":3521,"craving":3522,"flying":3523,"luck!":3524,"telling":3525,"famous":3526,"world.":3527,"lord":3528,"messages":3529,"training":3530,"chillin":3531,"geek":3532,"hills":3533,"million":3534,"(via":3535,"gb":3536,"hd":3537,"hook":3538,"kitch":3539,"lberg":3540,"opp":3541,"odd":3542,"oul":3543,"recent":3544,"stack":3545,"stream":3546,"oops":3547,"arr":3548,"goss":3549,"ros":3550,"ett":3551,"weight":3552,"&quot;i":3553,"gutted":3554,"twittering":3555,"then.":3556,"brought":3557,"grrr":3558,"breaking":3559,"crappy":3560,"atten":3561,"@amy":3562,"juice":3563,"buying":3564,"delicious":3565,"ugly":3566,"arrived":3567,"@donnie":3568,"imagine":3569,"allerg":3570,"tumblr.com/":3571,"),":3572,"aur":3573,"bang":3574,"e-":3575,"ied":3576,"jan":3577,"woot":3578,"yi":3579,"it..":3580,"stage":3581,"aron":3582,"lover":3583,"we've":3584,"sea":3585,"night...":3586,"fear":3587,"well!":3588,"joke":3589,"@mad":3590,"sleep!":3591,"grr":3592,"harry":3593,"keeping":3594,"talked":3595,"travel":3596,"yesterday.":3597,"versity":3598,"simple":3599,"personal":3600,"england":3601,"complete":3602,"folks":3603,"swimming":3604,"adorable":3605,"07":3606,"@in":3607,"flow":3608,"gers":3609,"sg":3610,"is!":3611,"become":3612,"hol":3613,"idio":3614,"dep":3615,"illa":3616,"aga":3617,"anywhere":3618,"home!":3619,"rubb":3620,"assign":3621,"afford":3622,"yeah!":3623,"tonite":3624,"yet?":3625,"ski":3626,"covered":3627,"brilli":3628,"unders":3629,"wahlberg":3630,"dentist":3631,"expensive":3632,"34":3633,":]":3634,"@gre":3635,"fli":3636,"fra":3637,"gift":3638,"sarah":3639,"organ":3640,"lock":3641,"local":3642,"alive":3643,"butt":3644,"uss":3645,"http://tumblr.com/":3646,"fun,":3647,"sunburn":3648,"people.":3649,"@ben":3650,"http://twitpic.com/3":3651,"tired,":3652,"lesson":3653,"bored.":3654,"swine":3655,"blah":3656,"usual":3657,"chicago":3658,"exhausted":3659,"direct":3660,"australia":3661,"favourite":3662,"@jordank":3663,"(i":3664,"cs":3665,"cere":3666,"lack":3667,"moo":3668,"yer":3669,"zi":3670,"anni":3671,"rol":3672,"ly!":3673,"unless":3674,"sushi":3675,"morow":3676,"mile":3677,"excell":3678,"oh!":3679,"www":3680,"week,":3681,"essay":3682,"right.":3683,"!!!!!!!":3684,"blon":3685,"trust":3686,"appro":3687,"awesome,":3688,"marie":3689,"series":3690,"reality":3691,"away.":3692,"starbucks":3693,"added":3694,"@laur":3695,"michael":3696,"floor":3697,"experience":3698,"national":3699,"neighbor":3700,"surgery":3701,"76":3702,"81":3703,"95":3704,"swe":3705,"ets":3706,"weak":3707,"do,":3708,"not.":3709,"nia":3710,"master":3711,"suit":3712,"tooth":3713,"ion.":3714,"icky":3715,"ived":3716,"ggie":3717,"step":3718,"marath":3719,"ugh!":3720,"finding":3721,"stayed":3722,"singing":3723,"okay.":3724,"lines":3725,"flash":3726,"blame":3727,"bulous":3728,"multi":3729,"brilliant":3730,"@jordanknight":3731,"aust":3732,"fry":3733,"gur":3734,"ratch":3735,"swear":3736,"snu":3737,"inspir":3738,"anti":3739,"report":3740,"me..":3741,"soc":3742,"wii":3743,"terri":3744,"suff":3745,"ntain":3746,"misses":3747,"feelin":3748,"speed":3749,"fake":3750,"chester":3751,"grace":3752,"perfor":3753,"scream":3754,"ashley":3755,"@taylor":3756,"truly":3757,"@mel":3758,"grandma":3759,"straw":3760,"option":3761,"ordered":3762,"hilarious":3763,"gunna":3764,"deserve":3765,"europe":3766,"kitchen":3767,"excellent":3768,"3g":3769,"82":3770,"@real":3771,"bat":3772,"cree":3773,"hen":3774,"hannah":3775,"session":3776,"wen":3777,"whe":3778,"re:":3779,"iter":3780,"me!!":3781,"sters":3782,"loy":3783,"golf":3784,"mode":3785,"moms":3786,"rage":3787,"lauren":3788,"shift":3789,"sugar":3790,"ohhh":3791,"ility":3792,"wave":3793,"really?":3794,"well...":3795,"great,":3796,"stock":3797,"@kar":3798,"zzle":3799,"year.":3800,"calls":3801,"paid":3802,"later.":3803,"dancing":3804,"aww,":3805,"diffic":3806,"figured":3807,"texas":3808,"productive":3809,"bunny":3810,"positive":3811,"bottle":3812,"brazil":3813,"@donniewahlberg":3814,"93":3815,"@ru":3816,"_x":3817,"athe":3818,"bk":3819,"crow":3820,"ji":3821,"ps.":3822,"ooh":3823,"'s.":3824,"up...":3825,"now..":3826,"irl":3827,"commun":3828,"develo":3829,"times.":3830,"ah.":3831,"lol..":3832,"there,":3833,"twitter,":3834,"@pat":3835,"hurting":3836,"drama":3837,"cool,":3838,"eeeee":3839,"given":3840,"loads":3841,"smart":3842,"cooking":3843,"woohoo":3844,"swim":3845,"natur":3846,"@peter":3847,"@el":3848,"bis":3849,"dee":3850,"fal":3851,"gent":3852,"hw":3853,"nz":3854,"pon":3855,"sli":3856,"tend":3857,"vamp":3858,"tony":3859,"letting":3860,"across":3861,"ider":3862,"iron":3863,"area":3864,"sher":3865,"shitty":3866,"today..":3867,"finale":3868,"@jack":3869,"chem":3870,"gaz":3871,"zzz":3872,"weekend,":3873,"women":3874,"dden":3875,"already.":3876,"checked":3877,"hehehe":3878,"switch":3879,"spot":3880,"machine":3881,"finger":3882,"freakin":3883,"liter":3884,"extremely":3885,"@this":3886,"^^":3887,"aha":3888,"bast":3889,"cab":3890,"ctr":3891,"dav":3892,"gooo":3893,"tro":3894,"wu":3895,"yuck":3896,"incred":3897,"return":3898,"hack":3899,"ass.":3900,"sol":3901,"hole":3902,"shit.":3903,"http://y":3904,"miami":3905,"span":3906,"lately":3907,"@em":3908,"clock":3909,"wards":3910,"while.":3911,"stuff.":3912,"---":3913,"job.":3914,"hahaha.":3915,"????????":3916,"kotb":3917,"salad":3918,"obvious":3919,"!&quot;":3920,"4.":3921,"5.":3922,"92":3923,"@au":3924,"a-":3925,"dor":3926,"hous":3927,"kit":3928,"nooo":3929,"pig":3930,"rate":3931,"tree":3932,"ety":3933,"active":3934,"seat":3935,"pear":3936,"compl":3937,"grey":3938,"cheers":3939,"sleep...":3940,"@krist":3941,"scratch":3942,"101":3943,"paris":3944,"vision":3945,"sweetie":3946,"spect":3947,"ference":3948,"cookies":3949,"140":3950,"either.":3951,"midnight":3952,"custom":3953,"laughing":3954,"football":3955,"invite":3956,"chinese":3957,"trailer":3958,"deep":3959,"fashion":3960,"hid":3961,"jr":3962,"pes":3963,"sour":3964,"t,":3965,"thn":3966,"mez":3967,"core":3968,"lia":3969,"kevin":3970,"river":3971,"nightmare":3972,"phy":3973,"everyday":3974,"program":3975,"brad":3976,"phone.":3977,"tho.":3978,"@pink":3979,"server":3980,"movie.":3981,"size":3982,"photograph":3983,"links":3984,"charac":3985,"piece":3986,"issue":3987,"baseball":3988,"http://tumblr.com/x":3989,":00":3990,";-)":3991,"@adam":3992,"@ryan":3993,"fc":3994,"fle":3995,"ime":3996,"kr":3997,"mie":3998,"pha":3999,"sf":4000,"winter":4001,"in!":4002,"choo":4003,"...so":4004,"cock":4005,"liz":4006,"but,":4007,"aren":4008,"workout":4009,"nasty":4010,"donal":4011,"bob":4012,"time...":4013,"weet":4014,"s.com":4015,"way,":4016,"phys":4017,"fabulous":4018,"convers":4019,"cheap":4020,"angry":4021,"human":4022,"@big":4023,"weren":4024,"room.":4025,"soup":4026,"holidays":4027,"connection":4028,"beginning":4029,"battery":4030,"cancelled":4031,"article":4032,"original":4033,"library":4034,"soccer":4035,"$$":4036,"32":4037,"@ho":4038,"@bu":4039,"aid":4040,"aim":4041,"candy":4042,"ell":4043,"lts":4044,"lton":4045,"oper":4046,"pg":4047,"s..":4048,"y_":4049,"toast":4050,"meal":4051,"adi":4052,"los":4053,"lovin":4054,"accept":4055,"iran":4056,"urgh":4057,"shee":4058,"somehow":4059,"usic":4060,"like,":4061,"contest":4062,"rush":4063,"@kay":4064,"perry":4065,"girl.":4066,"nice!":4067,"done.":4068,"musso":4069,"turning":4070,"corre":4071,"happening":4072,"flick":4073,"peter":4074,"surprise":4075,"@stephen":4076,"tempt":4077,"@jeff":4078,"jump":4079,"tweeps":4080,"hollywood":4081,"massive":4082,"empty":4083,"williams":4084,"attention":4085,"/3":4086,"01":4087,"84":4088,"@un":4089,"@ta":4090,"dish":4091},"merges":["i n","t h","a n","e r","t o","o u","o n","in g","r e",". .","a t","i t","o r","i s","th e","l l","m e","s t","h a","e e","a y","o o","v e","a r","l e","n o","y ou","an d","e n","c h","m y","e d","a s","s o","b e","e s","a d","i c","l o","h o","g h","! !","g o","a m","d ay","o f","a l","f or","r o","a ll",".. .","e t","h e","b u","c o","l i","a c","w i","l y","u n","k e","w h","t i","i '","i d","w e","' s","s e","gh t","d o","th at","' t","v er","r i","on e","ou t","ha ve","u p","u st","m o","t er","no w","l d","bu t","n e","w or","i' m","er e","j ust","i r","oo d","t w","a b","u r","c an","t t","wi th","g et","a re","no t","i m","w as","q u","n i","c k","r a","l a","r y","s h","m a","p e","so me","g ood","co m","wor k","p p","all y","ac k","t ;","th is","u s","d e","i ll","t e","a g","s u","lo ve","ni ght","en d","ou ld","an t","n a","th er","m or","n t","th an","d on","k s","li ke","at e","b o","i e","p o","ti me","is s","y e","to o","ho w","s s","in k",": /","qu o","c e","th ing","& quo","&quo t;","you r","h tt",":/ /","htt p","http ://","p l","to day","is h","s ee","go t","it 's","a w","ar t","n 't","a h","tw it","w ee","f o","ver y","f ee","wh at","m iss","o w","f in","b ack","an y","s .","go ing","f e",".. ..","i on","ee p","ro m","ha ha","ic k","m m","on g","t a","lo l","i f","c a","m i","am p","ou r","g u","w ant","e x","wi ll","f rom","k now","at ch","p le","oo k","@ j","f u","ne w","of f","n ing","o h","d id","ic e","it s","m u","i l","w a","t ing","fee l","n d","l u","don 't","re ally","th ink","ab out","a in","!! !","w ay","ha d",". com","t s","g e","ro w","g re","er s","ee d","p h","th ere","@ s","f ri","re ad","en t","re d","in e","w atch","mo re","& amp","&amp ;","ho me","we ll","p ic","can 't","? ?","s p","ou gh","f a","i g","oo l","it e","c on","ee n","n eed","st ill","ar d","j o","ch e","s l","the y",".com /","w w","f un","wee k","t u","es s","v ing","r u","ha pp","id e","@ m","wh en","than ks","twit ter","@ d","k ing","s a","ho pe","co me","a a","m an","oo oo","ou nd","h ere","la st","b y","ha s","e very","h h","p ro","ac e","f f","mu ch","is t","e ve","in d","the n","h er","p re","sl eep","ll ow","mor row","ri ght","mor ning","w ish","c u","b een","ou s","w n","gre at","s he","to morrow","s ad","wa it","b r","g r","s to","ha r","fo llow","ag ain","as s","s un","a k","n y","a f","d y","fri end","s or","it .","tw ee","' re","ra in","w ould","!! !!","m on","p u","b ad","u se","at ion","w on","i ve","l ook","b er","it t","b le","x x","a u","st u","@ k","wh y","read y","w ho","d er","happ y","c ould","d i","o ther","o ver","on ly","o k","s ay","p r","p er","sor ry","y s","c ar","s how","g ir","ma ke","0 0","as e","t ter","th ough","l f","to night","a st","g on","i' ll","s ch","he ad","an g","t ry","do wn","x t","b ed","sh ould","pl ay","g a","y es","gir l","b l","h i","u m","n ice","the m","z z","f re","o m","@ c","t r","g g","get ting","af ter","f i","do es","b ab","gon na","ye ah","watch ing","p s","b ro","me nt","g l","be tter","i es","ph one","st art","he y","l ong","s ,","i le","ad e","fu l","m ay","v ie","that 's","s !","m in","h u","h our","a pp","sch ool","a we","pe o","y y","peo ple","h im","an na","c t","p art","h ate","st e","twit pic","than k","@ b","t al","ca use","s c","wh ere","ti on","ag e","awe some","d u","m s","eve n","did n't","it y","you 're","an s","i' ve","e ar","st er","m ar","twitpic .com/","th o","http:// twitpic.com/","day s","week end","e l","am a","@ p","a ch","n er","i a","twee t","k es","ll y","li fe","le t","ta ke","s ho","itt le","so on","w r","b re","t y","le y","u gh","don t","be st","ne xt","w ere","s up","c l","l ittle","as h","fo re","ou ght","ne ver","f t","f ir","r r","ab le","can t","to n","at er","in ter","c i","& l","&l t;","i i","w o","he l","a v","h is","c ou","mo st","s er","oo o","ye ar","work ing","c ra","ti red","e ver","s ick","l ist","c all","mm er","ple ase","ou se","su re","1 0","su ck","le a","http:// b","fir st","every one","or t","re al","ha ving","h ur","do ing","w anna","re am","fin d","y a","d r","d am","l ate","e at","v o","to r","d one","feel ing","z ing","jo y","b lo","b it","c ool","j e","be ing","se lf","day .","a p","y ay","s ide","le s","b oo","li ve","way s","t ri","s ha","f ly","some thing","m us","mo m","an other","e st","h ouse","b a","d d","t in","f r","lu ck","hel p","s ong","b ig","m ade","b ook","k eep","me .","b ir","s y","o ld","y et","al ready","he ll","' ll","tt y","d is","har d","ti l","i ous","i o","an ce","ed .","p ar","in t","ex c","te ll","be cause","li ght","ing .","? !","lo t","c le","mo vie","al ways","en joy","su mmer","w in","gu ys","p t","&lt; 3","@ t","s in","s k","bab y","@ n","w ent","ly /","r is","i ly","@ l","om g","aw ay","an ge","ee ee","ho t","w .","s i","m c","fin ish","it. ly/","http://b it.ly/","v is","be fore","z y","dam n","n et","k id","s ound","try ing","ga me","a ther","r un","fin ally","look ing","ama zing","@ e","l oo","f am","at t","d es","now .","b s","com ing","it ed","he ar","pre tty","friend s","p en","c y","t ur","st ar","u t","p a","may be","b b","list en","ad d","mus ic","r oo","th ought","bo y","c lo","t v","bu r","in to","c er","le ss","che ck","go tt","s on","fu ck","l ine","it !","day !","w ow","f ace","x o","ear ly","s it","s wee","g er","w ard","le ft","wor ld","g ive","ac t","k ind","thing s","c r","as on","tu re","wh ile","i z","ll e","d a","g s","3 0","hour s","tal k","lo st","un ch","today .","v a","m p","m any","t ra","we ather","i p","gl ad","s et","y .","an k","stu ff","u l","gu ess","@ a","d in","l and","@ the","s at","lo ad","some one","tw o","does n't","c or","po st","f ar","at ed","ha ir","w al","is e","go d","bo red","bre ak","no thing","co ld","@ g","re e","ac tu","s pe","h un","i an","w er","ch o","be au","1 2","ig n","sa me","mi ght","tho se","bir th","d ri","p .","u re","miss ed","happ en","- -","p ho","st ay","fri day","won der",".. ...","l ater","u u","s aw","won 't","d s","t ru","pl an","al so","s ing","f er","time s","ex am","http://twitpic.com/ 6","wait ing","fre e","gott a","v ide","@ mi","b or","actu ally","part y","j on","un til","up d","we l","me n","ro ck","c ha","loo ks","d ad","m ber","vide o","@ r","me et","ww w.","p ort","exc ited","su ch","@ ch","cou nt","ur l","re me","at es","ma kes","bro ther","lea ve","l or","i ch","s m","re ss","sin ce","j u","sa id","bo dy","le ast","one y","1 1","po or","m ind","pp ing","beau ti","roo m","f ound","in s","ye ster","ok ay","i phone","un der","jo b","b ar","he 's","he art","tur n","m ust","pho to","that s","my self","fe w","s oooo","lo w","n n","s is","me an","beauti ful","aw ww","haha ha","f ood","v in","re st","w ar","l in","me d","ar ound","a ir","2 0","b all","aa aa","g y","be li","birth day","k en","he he","gu y","to m","any thing","g one","cu te","you !","es .","ti ll","ma king","j a","w ed","ma il","pu t","bu y","have n't","miss ing","p i","m ine","at ing","cl ass","t .","fa v","fa st","l unch","f an","sound s","en ce","pl ace","ar y","d ing","d ream","p ain","sto p","to p","ver s","fam ily","d an","re p","aw w","ke y","r ough","s ur","sup er","l ing","as k","every thing","wh ich","al most","you .","the ir","din ner","pic ture","a che","mon day","w /","it ing","me ss","i' d","cle an","tin y","c are","... i","any one","fu lly","mon th","c tion","st up","a .","wel come","; )","c of","s end","beli eve","think ing","b i","wo ke","stup id","want ed","e m","ic i","us ed","listen ing","h or","r us","t re","too .","well ,","stu dy","1 9","com p","finish ed","f l","h and","is n't","suck s","swee t","v i","?? ??","k ill","are nt","at s","c ry","dr ink","@ i","ch i","cof fee","y o","oo t","hh hh","& g","ers on","&g t;","hi gh","b ye","for ward","k o","a go","to t","z e","na me","s im","b and","c al","h mm","love ly","yester day","wr ong","sun day","it ,","do g","out side","pre ss","n ess","te st","fun ny","h it","ar k","s ...","an a","work .","sat ur","lol .","play ing","pro bab","hur ts","t ed","f all","p m","e .","th rough","c ur","c re","the se","probab ly","any more","c ook","d .","bu sy","p ay","@ to","reme mber","a th","k k","ho p","am er","with out","url .com/","m oney","en ough","1 3","c har","ar ch","blo g","n or","bu m","c our","j un","n g","pl ur","@j o","s ooo","wee ks","follow ers","tot ally","u k","ne y","did nt","http:// tiny","an n","she 's","mo ther","1 5","o pen","an e","we ar","ca me","c ess","m ac","ser ious","t rain","on ce","mo ve","http://tiny url.com/","@ f","l s","p /","st and","bo x","i ther","me !","read ing","follow ing","who le","it ch","pp ed","plur k","l ad","' ve","ta king","say s","f m","ee e","h ang","p ack","p ass","on es","@ me","s ed","wal k","see n","gr ad","av id","cy rus","@ v","there 's","?? ?","fu ll","vie w","al s","inter net","n u","1 00","l t","m ad","in a","com pu","night .","want s","p erson","sp ace","p y","ha lf","ow n","ick et","too !","hell o","plurk .com/","http:// plurk.com/","http://plurk.com/ p/","cu z","eat ing","g en","t en","be ach","r s","compu ter","k a","s w","sh it","aw a","m er","off ici","on line","de c","s mi","lo ts","b lu","c lu","ch ill","g ra","bl ack","in '","to wn","le x","up .","fa il","bo th","too k","@j on","@ ro","g i","lea ving","t un","what 's","hope fully","al one","pro ble","w oo","it al","yes ,","yeah ,","s oo","we 're","o s","n ite","ing ,","kind a","and y","cra zy","r ad","s en","s ent","i re","1 4","br ing","ci al","p ick","at ter","ni e","head ache","hur t","e ither","twee ts","re nt","st r","ar n","de l","us ing","sho pping","cour se","@ sh","time .","c at","s ou","sis ter","2 00","c ong","er .","m b","me ,","el se","good night","feel s","tomorrow .","sit ting","ic a","tal king","satur day","was n't","@ li","ro ss","co lle","t icket","haha .","l on","l ink","m r","n es","!! !!!","b tw","d if","today ,","fi re","you ?","co ver","see ms","fe ct","ed !","ag es","new s","they 're","@ x","ly .","de ad","tri p","g oo","g ar","he ard","though .","m .",".... ....","d ou","tri ed","l ar","l ma","stu ck","jon as","b la","s wi","@m ar","today !","oh n","b by","y !","le d","wor d","ide a","e as","re n","again .","tru e","cong r","@ al","in ks","ri ble","de fin","d ra","ah hh","@ h","c ity","ve n","you ,","con cer","for got","hun g","se x","gre en","brother s","d en","g an","r id","la p","watch ed","tu m","fi x","d ie","to ur","xx x","i k","no on","oooo oooo","won t","off ice","could n't","fav or","now ,","start ed","are d","ce ll","sup po","c atch","oh ,","home .","du de","!!!! !!!!","face book","e mail","i ght","r ing","ma g","rain ing","g le","te xt","c ru","s al","s ite","see ing","any way","@d an","min ut","mc fly","d ro","show er","awa ke","c up","st y","se ason","@ miss","k ed","m id","s ?","yay !","@mi ley","@ be","m is","ve d","n ch","p ast","to ld","ch ick","li e","kid s","ou d","break fast","a _","p et","r ist","go es","2 2","k er","w ater","ic o","love d","inter est","@ br","y ,","en gl","se con","http:// www.","need s","c ream","g in","ro ll","la x","e p","ta in","tu be","re s","love s","upd ate","d ress","ch ange","sun ny","tonight .","rep ly","l ay","thanks !","@miley cyrus","c fly","girl s","bro ke","start ing","sc re","je al","lma o","b out","w s","sh ort","day ,","fa ir","c us","x d","ca st","va to","serious ly","gr and","year s","that .","la ugh","cu t","i v","get s","com ple","de ar","' d","aw ard","pic s","s po","b ought","ah h","fin e","1 8","c .","s qu","you 'll","lo vato","par k","dri ve","ti ve","out .","qu est","mu m","2 4","a king","3 3","@ _","@ ste","an no","good .","head ing","bor ing","a ,","c amp","so re","ho li","ti e","now !","fin al","minut es","5 0","c ard","l eep","s ign","y um","ce pt","c es","k y","wor th","te ly","sp end","per fect","yy yy","po d","ste ad","re lax","qu ite","po int","wonder ful","an ne","mo on","ir d","bur n","hung ry","for m","d ance","ed ,","wa ke","jo in","st ra","ch ur","@ z","f il","te am","na p","ate ly","mm m","aa a","bl ood","@ la","u ck","ll en","0 9","p or","it ion","anno y","b ra","c li","j or","sh ine","ma ch","morning .","as leep","ber ry","after noon","mar k","enjoy ing","@ re","c ent","w ood","ca ke","@d d","call ed","@ de","g ard","ha m","e y","g as","o b","in stead","ge ther","con t","jun e","k in","o p","p ed","ve l","bu ck","lu v","cou ple","luck y","l ic","re ason","mo ment","fi gu","c tor","k n","v ac","qu e","m ood","st re","you tube","sh i","ill y","@j en","sleep .","app o","grad u","@dd lovato","p at","ch ee","be ll","we b","ne ar","wr ite","je ct","run ning","favor ite","2 1","m it","m ic","be at","defin ite","chur ch","row n","si gh","hop ing","concer t","me ans","up !","come s","@ le","l er","s id","w t","to gether","ar s","ce le","home work","3 .","i b","p ool","es ,","@to mm","jeal ous","j ack","we 'll","bo ard","fun !","pr ay","fuck ing","no ,","well .","xo xo","meet ing","@tomm cfly","h .","p an","me s","for tun",".... ..","proble m","@ ke","p ri","me t","li l","ur s","bo ys","b an","p rom","ll i","ic s","sto ry","itt y","b ee","c ri","v an","re vis","cra p","secon d","1 7","v ia","tt ing","work s","http://twitpic.com/ 7","definite ly","f lo","s low","ar ah","up ,","pr in","rr rr","lad y","h an","awesome !","a i","l .","n um","or der","ac count","mo v","te ch","bro ken","ii ii","th ro","ch ang","su b","_ _","i er","i gh","i ble","m al","ing !","ve s","che l","sto re","ation s","@ an","b en","b ri","f lu","h ,","down load","@ se","k ick","in st","wor st","sh ir","con f","dif fer",": 30","@ w","cho co","c d","to u","lo ving","f b","t ee","ch at","wh ite","2 5","6 0","f ac","le arn","go in","see m","sad .","colle ge","k new","p arent","is o","mi l","ba be","all .","ma th","po ss","let 's","c c","ck ed","mov ies","on t","ad am","al bum","un d","chi ld","@ st","f ing","h oo","j am","ay lor","ic al","p ur","or ge","is .","un i","pl us","app le","f ish","s co","en ter","here .","rad io","in .","my space","ag ree","ye a","real iz","offici al","lap top","e v","f oot","m tv","w it","ing s","le n","ry an","@m r","1 6","b ag","m ing","mi ley","exam s","blu e","@ ma","m ou","it ?","se arch","te x","sleep ing","clo se","g ee","le g","us u","@ am","e yes","f ic","f light","l ee","ch er","mo ving","v ice","so lu","ho ld","com ment","sho p","p age","ar a","co s","un k","un fortun","one .","sp ent","@ch ris","hor rible","lon don","engl ish","2 3","t wi","re ci","pp l","me l","la zy","@d avid","v s","on .","fe ll","xx xx","bed .","a il","r an","bu d","eve ning","fre sh","fm /","choco late","h ee","h ill","r and","s car","we ird","po p","ion s","sk y","suppo sed","f ro","be t","ic an","di ed","fre ak","wr iting","turn ed","k i","n at","to ry","no pe","lo g","smi le","tou ch","d ur","j ay","sh ip","po wer","ge st","lol !","ple as","ble ss","pr of","fore ver","spe cial","under stand","1 st","i li","th x","th urs","ha y","es !","for get","ust r","work ,","de press","mm mm","dri ving","happen ed","@ ra","k no","bo w","oooo o","pro du","ear li","@jon as","c ase","l it","u ght","... and","up load","te a","win do","u g","ro ad","li p.","haha ,","wish ing","appo int","thro at","@ tr","d ate","is ed","... but","do or","morning !","sto r","gard en","# follow","es e","ad o","we bs","tu es","say ing","ans wer","vis it","goo gle","d v","on d","some times","ci ally","n ick","r ay","r ide","re cor","what s","c amer","night !","ep iso","@ o","d m","was h","qu i","good !","ticket s","cele br","@ co","e u","e ye","i pod","you ng","hu ge","ul t","wed ding","@ ti","w all","z a","re mind","would n't","http://b lip.","song s","gra ph","http://blip. fm/","@ so","j ohn","st ick","qu ick","soon .","gy m","drink ing","http://blip.fm/ ~","@ car","f it","p ie","s am","re w","now ...","sun shine","app arent","b day","d un","i ence","v ic","v al","ri es","fa ther","4 0","e le","f at","j en","r ound","s le","today ...","@j a","there .","study ing","h !","p iss","er ing","le ts","time !","ex pe","tr ack","du e","mom my","upd ates","d avid","v id","boo ks","8 0","u e","ss ss","cur rent","7 7","h il","s an","day ...","ro b","ab solu","te ach","pro ject","c ed","h y","es pe","for d","wi fe","fun .","@d a","twee ting","vo te","/ 2","l an","in v","me ant","ar m","am i","do ctor","wor se","night ,","bit ch","boy friend",": o","a !","c ing","u te","th ree","on s","ch ic","ch ance","ch ris","go ver","ex act","sur pr","sim s","* *","g un","m as","w at","st ress","se ll","out !","wor ry","can not","con ne","ok ,","ga ve","ile d","tired .","sm all","holi day","stre et","g d","o t","p oo","t an","re l","me ?","ly ,","la in","end ed","again !","hu g","pa per","bb q","cr ash","war m","chick en","@ su","c ous","k .","s n","up set","pe ace","ant s","tomorrow !","fre nch","wt f","unfortun ately","4 5","d ig","f y","th inks","er ,","ra ther","hh h","di a","@i am","award s","vac ation","m ill","ar ri","de al","twee ter","sle pt","espe cially","c as","p ink",".. i","ha el","al i","are n't","gr ound","wonder ing",") .","w ah","w ine","an o","you 've","ho sp","that !","mi x","@s ha","week .","sha ll","@ ca","b on","l ou","v ir","y u","ie ld","ye p","fo x","clu b","a le","n ed","v ill","in side","ac c","id ent","fe ver","ex ha","know ,","right ?","gl ass","@ste ph","figu re","differ ent","2 .","8 8","9 0","f ant","r ic","li p","li es","pp y","haha h","ex cept","know .","@d j","sa ve","does nt","month s","congr ats","@ my","@ ni","@ don","b t","b ru","f la","h ind","i x","he al","bu s","sha re","clean ing","interest ing","i am","le nt","ca kes","fi ght","add ic","cr ack","parent s","i .","j er","l one","ou ch","is su","be er","ri ed","ru in","rain y","@k at","hey ,","dec id","chee se","@jonas brothers","@ ar","b ay","p ing","or k","wh ate","te m","if t","@j e","eve nt","zz zz","mess age","#follow friday","b as","n ic","p up","is on","go .","do ll","de f","de ck","sup port","dur ing","webs ite","apparent ly","@ mo","g al","i th","j us","k at","m ate","it ar","we st","tonight !","vo ice","exha ust","c red","o l","be l","ho st","al right","wor ds","hu gs","app reci","offici ally","m at","s me","me ...","sh in","te l","@j ess","br it","scre en","hosp ital","@ lo","k ers","le .","all ow","lol ,","des ign","pi zz","num ber","b ill","d ist","d ark","e f","re le","ll a","get tin","@j u","look ed","2 6","@ er","i ld","j um","th a","bu g","ri p","tw eep","sp ir","sc ared","soon !","dream s","bi ke","congr at","tum my","quest ion","yum my","@ he","b c","b al","be ar","go ld","do .","long er","weekend .","b -","b rain","ho lly","fe st","haha !","ain t","them .","ba th","@ ash","g ig","and a","li ked","your self","need ed","ct ed","keep s","ange l","c am","y n","is a","ar i","ar gh","ti re","id k","air port","eas y","d au","d ang","e ach","m ass","r or","at ive","it ...","go sh","gu itar","sa fe","00 0","blo ck","earli er","@ y","t b","w k","er o","be hind","work !","ex p","@s am","sto mach","ber t","hang ing","fil m","2 7","d um","n in","s us","w ing","me mor","li ving","ber g","zz y","vers ion","g ay","g ri","k iss","s and","u d","an i","al ong","di o","comp any","inst all","shir t","exact ly","@ lu","h at","r d","me nd","too ,","@a lex","pack ing","whate ver","l m","there !","yet .","@ just","c ross","f ill","m all","bu sin","pu ll","itt en","pr act","min ute","prof ile","decid ed","k night","p al","re sp","gr ou","sto n","des er","ure n","men tion","200 9","rand om","8 7","c tive","f ans","th y","ou ble","have nt","im ag","la w","good bye","twitter .","every body","pre sent","sorry .","ast ic","photo s","realiz ed","e mp","g ie","m atter","s har","in o","se y","here !","wish es","!!!! !!","di re","wow ,","mother 's","gradu ation","dau ght","( (","1 .","a than","h us","h rs","v y","w is","st al","ve nt","day s.","back .","che er","great !","ap pe","bir d","game s","gi ving","n on","r on","w ind","ha v","ed u","ma in","pl ans","ex per","fr ont","?! ?!","picture s","absolu tely","( :","2 nd","d ent","f act","u h","qu een","&quot; .","ah ,","play ed","start s","inter view","uu uu","hmm m","stra ight","twi light","@ bo","g row","t able","it a","work ed","ca p","ff ic","pr oud","dis appoint","exc iting","ju ly","g orge","j b","re su","ve gas","ch in","ad y","su m","time ,","pu bl","though ,","http://twitpic.com/ 5","suck s.","pen s","clo the","a part","h ates","st a","en g","so ld","mo b","ta ken","thanks ,","sleep y","yy y","fr ank","count ry","wed nes","y r","no !","ti es","de st","po t","here ,","school .","sha me","poss ible","busin ess","a lot","d at","d et","g t","h r","j ess","k im","p c","it 'll","ad a","not e","im a","http:// my","au l","min s","anna h","@p et","b ase","g ing","so ,","am .","know !","@j ohn","@s arah","show s","better .","wo man","plan e","wear ing","# fb","b rown","k ate","m art","t aylor","is nt","be gin","lo se","morning ,","tra ffic","bum med",", ,","g .","n ation","t is","th om","re com","no se","ic ks","all !","tw een","ma jor","good ,","aw ful","il s","much .","sme ll",": -","on !","or d","en e","bu n","ti v","know s","jo e","ser vice","annoy ing","current ly","c ts","d ar","ou n","ou s.","ro se","sh oot","ther es","fe lt","sad ly","ugh .","eeee eeee","tra il","spe ak","@ and","u .","at l","st at","be tween","al .","out ,","de v","end ing","today ?",".... i","thanks .","though !","life .","wal king","sex y","mark et","episo de","fant astic","pizz a","d j","d ed","f ield","g ust","k ay","o .","o c","th in","lo gy","ah !","fee d","bur nt","ask ed","mag ic","mou th","stor m","camer a","lone ly","recom mend","9 9","h on","p he","ic ed","fo l","ex tra","wa king","oooo oo","pro per","br and","relax ing","revis ion","c oo","n one","th row","is ter","no body","co lor","work ...","fee t","oh h","che lle","much !","tr ouble","sho t","arch ie","d le","j es","all er","su c",".... ...","fre aking","stay ing","sing le","soooo o","han gover","2 day",": '","@ po","al though","co z","con sid","sick .",") )","@ im","a z","in fo","bu ild","pp in","ex t","ww ww","man ,","di es","mob ile","f ed","v ious","ll o","st ate","wi l","un t","sh out","some time","ps y","hu bby","tweet .","dr unk","vo l","fr an","enjoy ed","sou th","thurs day","! ?","2 9","b ak","d ru","n s","ha h","ro y","he at","bu l","id ge","that ,","again ,","head ed","ies .","att ack","comple tely","blood y","hus band","gorge ous","8 5","a po","b .","ch anne","bu ll","pl ac","ny c","fr ance","e h","h one","h um","i _","i al","t at","w ise","as ha","de ath","su g","po sit","fu ture","her o","gr ade","di v","rr r","cool .","kill ing","dv d","eu ro","6 6","b ie","c ough","g ro","h oney","m un","n .","s mo","re .","it un","no .","ch an","ic ally","co py","ri e","but ter","fin als","ta ste","ta lent","home ,","bad .","sorry ,","awesome .","ty pe","cool !","att le","gott en","3. 0","qui et","3 5","4 4","c ting","f ur","h m","ho tel","ac tion","do gs","sh es","ah hhhh","tomorrow ,","sor t","tonight ,","weekend !","tum bl","a lex","e pic","er ed","of ten","se cre","lol ...","ca ught","ers !","man .","gg ing","house .","cle ar","@n ick","cal i","pass ed",". im","8 9","b io","l is","er s.","he a","co l","im port","ma x","ta kes","gu e","@m ark","http://twitpic.com/ 4","gen er","acc ident",": |","a ks","a head","t es","is land","ll ll","bu mmer","ne ck","la ke","la kers","sh ut","de mi","bo t","@j ay","sto pped","his tory","swi ft","@ ad","@ do","@ its","b last","f tw","j k","y ork","to ri","re g","le ar","ie _","iss a","off .","sho es","fl at","cry ing","buck s","vill e","8 3",": :","@ ha","b f","b right","j our","me x","le na","ic ious","ne igh","bo ther","sa le","dad dy","awww w","amer ican","dro p","tues day","b- day","@ ne","@ ph","b atter","d c","p in","t een","y ah","on ,","on y","re ce","st ation","ha !","ri ch","up er","are ly","la me","us .","haha haha","twitter !","cl ick","sk in","video s","mother s","dou ble","dou bt","@dan ny","spend ing","near ly","usu ally","bud dy","scar y","@ there","e mo","i ,","k u","m ir","m ama","in clu","re -","or g","en er","ly n","ter rible","ab o","ind eed","hu h","him .","tweet deck","call ing","cer tain","ico le","7 5","@ no","h ood","p eep","t m","or y","one !","tt ed","ess ion","tr ans","min i","av ail","dis ney","int en","amazing !","@jon athan","@david archie","sug gest","tumbl r","@ na","p ee","s es","me e","le ad","qu al","ra id","this .","fe at","dy ing","pu sh","okay ,","swi mm","recor d","clothe s","2 8","@ official","b 4","b ank","f our","l am","r am","v ip","in ,","th ru","ho we","al y","ti m","can cell","bo tt","mu l","ok .","tr an","ner v","pi x","squ are","tee th","pleas ure","import ant","@ all","a tor","e ast","k ar","l at","p ap","an im","er !","it es","it ies","al a","se l","do in","sh u","de li","art ic","watch in","could nt","post ed","tre k","tre nd","grou p",":' (","howe ver","g n","m ur","p ly","t le","on to","ad or","up ?","night s","back !","yes !","ton s","jon es","aaaa aaaa","sen se","prin cess","suc cess","d ry","j ap","r .","t ch","w ro","or ig","al ia","... i'm","do !","do m","ra h","some where","man !","great .","over .","bed ,","suppo se","avail able","8 6","@ ge","a ustr","r ace","w ha","y '","ar ious","lo c.","ck s","bo ss","man ag","hey !","@b ri","ms n","ger many","anymore .","nor mal","kn ee","http://my loc.","http://myloc. me","7 4",": s","b our","t ag","st ed","le gs","li m","now ?","way .","@s im","gr am","pu tting","plan ning","move d","chang ed","hone st","itun es",": p","@ ed","b in","d :","r ick","u ?","y all","to .","re y","ho ly","co ast","un g","wh oo","wor ried","ie l","po l","what ?","@k im","down .","wow !","cho ice","send ing","math s","windo w","cous in","6 9","@ oh","@ tom","e gg","h es","m atch","w et","x .","co de","one ,","tw ice","tt e","was nt","au gust","who 's","pa ir","happen s","ja mes","fav our","ago .","http://blip.fm/~ 7","nerv ous","* sigh","b ing","l v","m and","it !!","mi ke","ain 't","fa iled","pr ice","nice .","ear th","wow .","black berry","str ong","mid dle","bra z","fro g","gd /","disappoint ed","wro te","i ent","u !","in al","is ,","li kes","la und","again st","ment s","omg !","spe ll","proble ms","mr .","lay ing","piss ed","pup py","! )","k itty","ing ...","as king","be th","co tt","li ed","de gre","ant ic","ss s","has n't","pro b","follow ed","ation .","guys !","si x","0 8","e 3","f ive","i or","n al","s ir","t !","or ts","ll ie","ic ul","lo v","co st","out ta","how 's","thing .","ph ones","mon t","play er","sc ri","cl ou","ash ion","wo lf","@n at","des k","clo sed","da ve","sou l","fix ed","ib ly","thom as","lear ning","@there al","jap an","laund ry","@ ab","b ac","b row","f fin","g ed","i to","s light","x box","it ting","wi ld","ke pt","http:// is.","will iam","@m s","@m ic","sleep ,","di et","sch edu","yes .","check ing","cor n","also ,","dro pped","ext reme","@jonathan r","http://is. gd/","( and","3 rd","a x","e k","n am","z o","st ic","ve lo","bu nch","some body","pp er","na h","mi les","sp am","friend s.","show .","gg ed","yeah .","sur ger","btw ,","prom ise","fing ers","appreci ate","pract ice","- )","7 0","c ash","d ir","t -","en tire","ch uck","that ?","te ar","bo at","&quot; the","back ground","@j im","@j ason","mu se","every where","her .","hour s.","where 's","dr inks","@l ady","kid ding","fm l","str ange","windo ws","dun no","expe ct","channe l","@jonathanr knight","b ff","b ble","k ris","l oud","n c","n oooo","s ni","s ig","t it","y up","er y","re ach","or ange","oo m","en s","so cial","co ll","ke lly","can ce","te mp","than x","your s","mi ly","@s p","fa ve","con tin","cu dd","sto ne","au d","@l is","cha mp","www. tweeter","turn s","kill ed","http://plurk.com/p/ x","resp on","publ ic","secre t","5 5","d nt","i en","p !","t ar","th under","re li","is ing","you ...","so ft","lo ss","li br","im press","fa ult","stu dio","@c ra","@c har","gg y","ste ph","sc ience","ugh ,","ii i","ever .","fr ustr","thought s","sty le","enter tain","rele ase","congrat ul","*sigh *",", 000","@ as","@ love","b arely","c la","j im","l ab","p ants","z ed","to tal","me dia","ee l","ch rist","be y","be an","ter s","sh oo","pl z","ex pens","@j ord","week !","ide as","pro mo","them !","ment .","help ing","upd ated","dan ny","hand s","catch ing","cru sh","mil k","@da ve",".im /","a e","b gt","d ge","e ff","l as","m are","re a","re view","it u","you !!","so m","go !","wi ch","ver se","pl s","sp ring","@m at","af raid","show ing","gg er","gg gg","everyone !","dd dd","da ily","fall ing","nor th","annoy ed","conf used","child ren","ruin ed","daught er","wednes day","/ c","7 8","7 9","d arn","f ab","m t","m att","r ac","s illy","y ard","th .","th or","it z","st ru","le vel","am o","all en","he av","do t","tt tt","us er","de le","aw n","&amp; &amp;","@m on","ff y","again ...","should n't","cra ving","fly ing","luck !","tell ing","fam ous","world .","lor d","mess ages","train ing","chill in","gee k","hill s","mill ion","( via","g b","h d","h ook","k itch","l berg","o pp","o dd","ou l","re cent","st ack","st ream","oo ps","ar r","go ss","ro s","et t","we ight","&quot; i","gu tted","twitter ing","then .","br ought","gr rr","bre aking","cra ppy","att en","@a my","ju ice","buy ing","del icious","ug ly","arri ved","@don nie","imag ine","aller g","tumblr .com/",") ,","a ur","b ang","e -","i ed","j an","w oot","y i","it ..","st age","ar on","lo ver","we 've","se a","night ...","fe ar","well !","jo ke","@m ad","sleep !","gr r","har ry","keep ing","talk ed","tra vel","yester day.","vers ity","sim ple","person al","engl and","comple te","fol ks","swimm ing","ador able","0 7","@ in","f low","g ers","s g","is !","be come","ho l","id io","de p","ill a","ag a","any where","home !","ru bb","ass ign","af ford","yeah !","ton ite","yet ?","sk i","cover ed","bri lli","und ers","wah lberg","dent ist","expens ive","3 4",": ]","@ gre","f li","f ra","g ift","s arah","or gan","lo ck","lo cal","al ive","but t","us s","http:// tumblr.com/","fun ,","sun burn","people .","@b en","http://twitpic.com/ 3","tired ,","less on","bored .","sw ine","bla h","usu al","chic ago","exhaust ed","dire ct","austr alia","favour ite","@jord ank","( i","c s","c ere","l ack","m oo","y er","z i","an ni","ro l","ly !","un less","su shi","mor ow","mi le","ex cell","oh !","ww w","week ,","ess ay","right .","!!!! !!!","bl on","tr ust","app ro","awesome ,","mar ie","ser ies","real ity","away .","star bucks","add ed","@la ur","mic hael","flo or","exper ience","nation al","neigh bor","surger y","7 6","8 1","9 5","s we","et s","we ak","do ,","not .","ni a","ma ster","su it","too th","ion .","ick y","ive d","gg ie","ste p","mar ath","ugh !","find ing","stay ed","sing ing","okay .","lin es","fl ash","bla me","bul ous","mul ti","brilli ant","@jordank night","a ust","f ry","g ur","r atch","s wear","s nu","in spir","an ti","re port","me ..","so c","wi i","ter ri","su ff","nt ain","miss es","feel in","sp eed","fa ke","che ster","gr ace","per for","sc ream","ash ley","@t aylor","tru ly","@me l","grand ma","stra w","op tion","order ed","hil arious","gun na","deser ve","euro pe","kitch en","excell ent","3 g","8 2","@ real","b at","c ree","h en","h annah","s ession","w en","w he","re :","it er","me !!","st ers","lo y","go lf","mo de","mo ms","ra ge","la uren","sh ift","su gar","oh hh","il ity","wa ve","really ?","well ...","great ,","sto ck","@k ar","zz le","year .","call s","pa id","later .","dan cing","aww ,","dif fic","figu red","tex as","produ ctive","bun ny","posit ive","bott le","braz il","@donnie wahlberg","9 3","@ ru","_ x","a the","b k","c row","j i","p s.","oo h","'s .","up ...","now ..","ir l","com mun","de velo","time s.","ah .","lol ..","there ,","twitter ,","@p at","hur ting","dr ama","cool ,","eeee e","give n","load s","sm art","cook ing","woo hoo","swi m","nat ur","@pet er","@ el","b is","d ee","f al","g ent","h w","n z","p on","s li","t end","v amp","to ny","le tting","ac ross","id er","ir on","are a","sh er","sh itty","today ..","fin ale","@j ack","che m","ga z","zz z","weekend ,","wo men","dd en","already .","check ed","hehe he","sw itch","spo t","mach ine","fing er","freak in","lit er","extreme ly","@ this","^ ^","a ha","b ast","c ab","c tr","d av","g ooo","t ro","w u","y uck","in cred","re turn","ha ck","as s.","so l","ho le","sh it.","http:// y","mi ami","sp an","late ly","@e m","clo ck","ward s","while .","stuff .","-- -","job .","hahaha .","???? ????","ko tb","sal ad","ob vious","! &quot;","4 .","5 .","9 2","@ au","a -","d or","h ous","k it","n ooo","p ig","r ate","t ree","et y","ac tive","se at","pe ar","com pl","gre y","che ers","sleep ...","@k rist","sc ratch","10 1","par is","vis ion","swee tie","spe ct","fer ence","cook ies","14 0","either .","mid night","cus tom","laugh ing","foot ball","inv ite","chin ese","trail er","d eep","f ashion","h id","j r","p es","s our","t ,","th n","me z","co re","li a","ke vin","ri ver","night mare","ph y","every day","pro gram","br ad","phone .","tho .","@p ink","ser ver","movie .","si ze","photo graph","lin ks","char ac","pie ce","issu e","base ball","http://tumblr.com/ x",": 00","; -)","@ adam","@ ryan","f c","f le","i me","k r","m ie","p ha","s f","w inter","in !","ch oo","... so","co ck","li z","but ,","are n","work out","na sty","don al","bo b","time ...","wee t","s. com","way ,","ph ys","fa bulous","con vers","che ap","ang ry","hu man","@b ig","wer en","room .","sou p","holi days","conne ction","begin ning","batter y","cancell ed","artic le","orig inal","libr ary","soc cer","$ $","3 2","@ ho","@ bu","a id","a im","c andy","e ll","l ts","l ton","o per","p g","s ..","y _","to ast","me al","ad i","lo s","lo vin","ac cept","ir an","ur gh","sh ee","some how","us ic","like ,","con test","ru sh","@k ay","per ry","girl .","nice !","done .","mus so","tur ning","cor re","happen ing","fl ick","pet er","surpr ise","@steph en","tem pt","@je ff","jum p","tweep s","holly wood","mass ive","emp ty","william s","atten tion","/ 3","0 1","8 4","@ un","@ ta","d ish"]}}